'<pad>_'
'<EOS>_'
'[CLS]_'
'[SEP]_'
'[MASK]_'
'[UNK]_'
'\u\u\uINDENT\u\u\u_'
'\u\u\uDEDENT\u\u\u_'
'\u\u\uLONGTOKEN\u\u\u_'
'\u\u\uINVALID\u\u\u_'
'\u\u\uNL\u\u\u_'
'\u\u\uNLCHAR\u\u\u_'
'\u\u\uCR\u\u\u_'
'\u\u\uENDMARKER\u\u\u_'
'\u\u\uCARET\u\u\u_'
'\u\u\uNEWLINE\u\u\u_'
',_'
' ^_'
'\u\u\uNEWLINE\u\u\u'
')_'
'(_'
'._'
''^_'
''_'
'=_'
':_'
'_'
'\u^_'
'\\^_'
'self_'
']_'
'[_'
'"^_'
'.^_'
'\u\u\uINDENT\u\u\u '
'\u\u\uNLCHAR\u\u\u^'
'"_'
'^_'
'0_'
'x^_'
'-^_'
'1_'
':^_'
'def_'
',^_'
'       _'
'if_'
'1^_'
'/^_'
'3^_'
's^_'
'0^_'
'the^_'
'2_'
'a^_'
'u^_'
'import_'
'{_'
'}_'
'2^_'
'return_'
'    ^_'
'           _'
'        ^_'
'n^_'
'+_'
'   _'
'3_'
'in_'
'True_'
'None_'
'(^_'
'::^_'
'name_'
'd^_'
'to^_'
'add\u^_'
'from_'
'ns^_'
'\u\u^_'
'==_'
'4^_'
'for_'
'of^_'
'-_'
'e^_'
'"""^_'
'5^_'
'cls_'
's_'
'6^_'
'b^_'
'8^_'
'is^_'
'c^_'
'"""_'
't^_'
'f^_'
'r^_'
'get\u^_'
'               _'
'path_'
'id_'
'9^_'
'name^_'
'data_'
'''_'
'is\u^_'
'*_'
'7^_'
'False_'
'assert^_'
')^_'
'class_'
'=^_'
'in^_'
'%^_'
'id^_'
'  ^_'
'method_'
'else_'
'\u\u\uEOS\u\u\u_'
'<^_'
'for^_'
'4_'
'%_'
'not_'
'i_'
'param_'
'print_'
'test\u^_'
'and^_'
'x_'
'5_'
'os_'
'module_'
'00^_'
'                   '
'type^_'
'\u\u\uINDENT\u\u\u	'
'value_'
'               ^_'
'type_'
''\\^_'
'len_'
'args_'
'A^_'
'6_'
'str_'
'Error_'
'8_'
'|^_'
'7_'
'     ^_'
'set^_'
'append_'
'>^_'
'get_'
'Equal_'
'            ^_'
'p^_'
'get^_'
'not^_'
'@_'
'be^_'
'url_'
'9_'
'list_'
';^_'
'i^_'
'np_'
'key_'
'm^_'
'C^_'
'file^_'
'Get^_'
'D^_'
'   ^_'
'y^_'
'root\u^_'
'or^_'
'The^_'
'f_'
'd_'
'*^_'
'file_'
'``^_'
'[^_'
'is_'
'+=_'
'data^_'
'{^_'
'db^_'
'assert_'
'test^_'
'as_'
'r_'
'o^_'
'elif_'
'value^_'
'format_'
'S^_'
'and_'
'result_'
'Type^_'
'://^_'
'with^_'
'string^_'
'e_'
'on^_'
'dict_'
'from^_'
'g^_'
'y_'
'Field^_'
't_'
'django^_'
'except_'
'config_'
'try_'
'**_'
'init\u\u_'
'\u_'
'`^_'
'sys_'
'info_'
'request_'
'c_'
'Test^_'
'),^_'
'join_'
'+^_'
'const^_'
'fields^_'
'models^_'
'that^_'
'list^_'
'int_'
'text_'
'const_'
'p_'
'a_'
'32^_'
'an^_'
'raise_'
'this^_'
'com^_'
'v^_'
'ing^_'
'void^_'
'time_'
'xe^_'
'M^_'
'to\u^_'
'as^_'
'B^_'
'Field_'
'http^_'
'="^_'
'E^_'
'l^_'
'/_'
'True^_'
'int^_'
'by^_'
'if^_'
'"\\^_'
'xc^_'
'set\u^_'
'xa^_'
'n_'
'F^_'
's\u^_'
'kwargs_'
'Value^_'
'line_'
'xd^_'
'xf^_'
'class^_'
'response_'
'param^_'
'uint^_'
'64^_'
'xb^_'
'I^_'
'size_'
'>'_'
'key^_'
'index_'
'models_'
'	^_'
'Q^_'
'or_'
'T^_'
'are^_'
'10^_'
'\u\u\uCR\u\u\u^_'
'""_'
'default^_'
'virtual_'
'      ^_'
'</^_'
'h^_'
'P^_'
'object^_'
'ed^_'
'db_'
'params_'
'@^_'
'.'_'
'w^_'
'write_'
'user^_'
'b_'
'20^_'
'range_'
'Name_'
'>_'
'with_'
'10_'
'}^_'
'!=_'
'it^_'
'm_'
'Set^_'
'U^_'
'Ns3^_'
'long^_'
'register\u^_'
'#^_'
''/^_'
'dir_'
'k^_'
'user_'
'L^_'
'add^_'
'from\u^_'
'v_'
'\\\\^_'
'."_'
'item_'
'k_'
'&'_'
'∅^_'
'255_'
'Id^_'
'pass_'
'constructor_'
''\u^_'
''%^_'
'all^_'
'X^_'
'context_'
'G^_'
'unsigned^_'
'	_'
're_'
'empty^_'
'."""_'
'This^_'
'methods_'
'json_'
'client_'
'obj_'
'N^_'
'node_'
'new\u^_'
'object_'
'parser_'
'01^_'
'max^_'
'H^_'
'text^_'
'filename_'
'options_'
';'_'
'count_'
'msg_'
'z^_'
'version^_'
'set_'
'Address^_'
'create\u^_'
'<_'
'Name^_'
'url^_'
'Y^_'
'R^_'
'message_'
']^_'
'l_'
'split_'
'',^_'
'return^_'
'open_'
'Exception_'
'default_'
'en^_'
'file\u^_'
'Time^_'
'To^_'
'Data^_'
''''^_'
'path^_'
'model_'
'Attribute^_'
'log_'
'File^_'
'time^_'
'":^_'
'new^_'
'code_'
'str^_'
'size^_'
'List^_'
'utils_'
'string_'
'test_'
'at^_'
''''_'
'state_'
')'_'
'will^_'
'max\u^_'
'--^_'
'16^_'
'     _'
'02^_'
'12^_'
'"%^_'
'can^_'
'ID^_'
'output_'
'Type_'
'number^_'
'Ptr^_'
'bool^_'
'error_'
'    _'
'logger_'
'11^_'
'no^_'
'		_'
'parent_'
'title^_'
'>>>^_'
'If^_'
'code^_'
'function^_'
'status_'
'S_'
'row_'
'data\u^_'
'datetime_'
'description^_'
'start_'
'values_'
''-^_'
'title_'
'html^_'
'logging_'
'group_'
'name\u\u_'
'error^_'
'22^_'
'User^_'
'app_'
'length^_'
'version_'
'Error^_'
'V^_'
'main^_'
'isinstance_'
'help_'
'length_'
'Object^_'
'link^_'
'Char^_'
'de^_'
'Key^_'
'label_'
'res_'
'",^_'
'er^_'
'start^_'
'j_'
'foo^_'
'String^_'
'use^_'
'Not^_'
'py^_'
'O^_'
'Qt^_'
'check\u^_'
'user\u^_'
'd\u^_'
'val_'
'std^_'
'out_'
'Base^_'
'session_'
'u_'
'assert\u^_'
'method^_'
'fields_'
'es^_'
'&^_'
'g_'
'lambda_'
'settings_'
'index^_'
'Z^_'
''--^_'
'shape_'
'you^_'
'date^_'
'https^_'
'django_'
'.\\^_'
'keys_'
'query_'
'0.0_'
'array_'
'used^_'
'items_'
'action_'
'List_'
'debug_'
'input^_'
' _'
'output^_'
'node^_'
'map_'
'command_'
'03^_'
'event_'
'one^_'
'www^_'
'float_'
'table_'
'status^_'
'info^_'
'default\u^_'
'line^_'
'o_'
'update_'
'start\u^_'
'cmd_'
'j^_'
'group^_'
')"_'
'create^_'
'mode_'
'No^_'
'org^_'
'15^_'
'mock_'
'Is^_'
'Add^_'
'Dict_'
'image^_'
'add_'
'253_'
'objects_'
'match_'
'K^_'
'num\u^_'
'date_'
'Ipv^_'
';_'
'array^_'
'q^_'
'h_'
'which^_'
'self^_'
'has^_'
'only^_'
'end^_'
'module^_'
'field_'
'String_'
'table^_'
'super_'
'Returns^_'
'should^_'
'description_'
'30^_'
'close_'
'true^_'
'?^_'
'source^_'
'replace_'
''\u\u^_'
'w_'
'None^_'
'current^_'
'parse\u^_'
'format^_'
'content_'
';"_'
'log^_'
'instance^_'
'on\u^_'
'output\u^_'
'read_'
'n\u^_'
'/'_'
'current\u^_'
'Case_'
'arg^_'
'out^_'
'property_'
'main_'
'W^_'
'14^_'
'port_'
'headers_'
'Create^_'
'values^_'
'File_'
'when^_'
'pos_'
'          ^_'
'files_'
'c\u^_'
'Date^_'
'mock\u^_'
'env_'
'12_'
'18^_'
'100_'
'Text_'
'server^_'
'message^_'
'dict^_'
'state^_'
'       ^_'
'Text^_'
'config^_'
'13^_'
'field^_'
'ID_'
'while_'
'content^_'
'api_'
'json^_'
''.^_'
'filter_'
'run_'
'api^_'
'token_'
'65^_'
'"/^_'
'Default^_'
'application^_'
'list\u^_'
'T_'
'run\u^_'
'xff^_'
'have^_'
'base_'
'label^_'
'y\u^_'
'04^_'
'char^_'
'in\u^_'
'width_'
'root_'
'tf_'
'21^_'
'names_'
'request^_'
'For^_'
'double^_'
'files^_'
'20_'
'import\u^_'
'()^_'
'argument_'
'must^_'
'core_'
'results_'
'image_'
'ng^_'
'plt_'
'yield_'
'model^_'
'all\u^_'
').^_'
'numpy_'
'input\u^_'
'continue_'
'unittest_'
'body_'
'os^_'
'target_'
'Info^_'
'11_'
'func_'
'$^_'
'):^_'
'Python^_'
'ly^_'
'16_'
''#^_'
'by\u^_'
'end_'
'A_'
'input_'
'05^_'
'with\u^_'
'count^_'
''<^_'
'related^_'
'run^_'
'ed_'
'given^_'
'address^_'
'1.0_'
'first^_'
'all_'
'num_'
'example^_'
'do^_'
'argv_'
'host_'
'Data_'
''[?]'_'
'update\u^_'
'strip_'
'17^_'
'instance_'
'static_'
'Model^_'
'al^_'
'types_'
'has\u^_'
':%^_'
'X_'
'='^_'
'bar^_'
'tag_'
'Nt^_'
'Device^_'
'read^_'
'core^_'
'':^_'
'}'_'
'base^_'
'color_'
'last^_'
'port^_'
'form_'
'target^_'
'er_'
'expected\u^_'
'Node^_'
'null^_'
'24^_'
'80^_'
'future\u\u_'
'random_'
'*'_'
'74^_'
'found^_'
'25^_'
'video\u^_'
'blank^_'
'update^_'
'Model_'
'network^_'
'check^_'
'max_'
'item^_'
'tag^_'
'08^_'
'host^_'
'source_'
'other^_'
'-%^_'
'15_'
'float^_'
'Tag^_'
'ret_'
'type\u^_'
'%(^_'
'conf_'
'any^_'
'lines_'
'idx_'
'template_'
'return\u^_'
'number_'
'xml^_'
'			_'
'Id_'
'\u\u'_'
'In^_'
'False^_'
'50^_'
'D_'
'utf^_'
''"_'
'19^_'
'make\u^_'
't\u^_'
'Packet^_'
'project^_'
'prefix_'
'---------------^_'
'z_'
'Item^_'
'num^_'
'31^_'
'r\u^_'
'/%^_'
'['^_'
'->^_'
'function_'
'result^_'
'header_'
'Group^_'
'x\u^_'
'config\u^_'
'option_'
'"--^_'
'expected_'
'exists_'
'06^_'
'Path_'
'61^_'
'page^_'
'000^_'
'Event^_'
'dtype_'
'server_'
'"-^_'
'Number^_'
'find\u^_'
'level_'
'∅∅^_'
'db\u^_'
'		^_'
'ids_'
'wx_'
'read\u^_'
'29^_'
'command^_'
'end\u^_'
'From^_'
'Count^_'
'Integer^_'
'q_'
'min^_'
'Py^_'
'48^_'
'Foreign^_'
'us^_'
'op_'
'status\u^_'
'password^_'
'28^_'
'entry_'
'page_'
'txt^_'
'attribute^_'
'patch_'
'23^_'
'69^_'
'or\u^_'
'Size^_'
'07^_'
'view_'
'break_'
'Test_'
'-\\^_'
'        _'
'app^_'
'copy_'
'log\u^_'
'base\u^_'
''∅'_'
'Gui_'
'Return^_'
'dir^_'
'ing_'
'using^_'
'up^_'
'pointer^_'
'required^_'
'for\u^_'
'print\u^_'
'right^_'
'40^_'
'import^_'
'09^_'
'python^_'
'\\'^_'
'Callback^_'
'73^_'
'doc_'
'image\u^_'
'execute_'
'J^_'
'last\u^_'
'operator_'
'client^_'
'action^_'
'lower_'
'event^_'
'Simple^_'
'resource^_'
'offset_'
'">^_'
'0x00_'
'>=_'
'Request^_'
'p\u^_'
'df_'
'username_'
'req_'
'load\u^_'
'33^_'
'auth^_'
'password_'
'src^_'
'color^_'
'ip^_'
'conn_'
'search\u^_'
'exit_'
'License^_'
'72^_'
'Item_'
'\u\u_'
'ion^_'
'write^_'
'form^_'
'connect_'
'200_'
'Value_'
'         ^_'
'Ftdc^_'
'util_'
'API^_'
']'_'
'model\u^_'
'build\u^_'
'option^_'
'email^_'
'mode^_'
'e\u^_'
'lib_'
'api\u^_'
'but^_'
'build^_'
'root^_'
'height_'
'returns^_'
'S\u^_'
'service^_'
'70^_'
'resp_'
'100^_'
'∅∅∅∅∅^_'
'store^_'
'Parser_'
'37^_'
':"_'
'stdout_'
'name\u^_'
'URL_'
'local^_'
'video^_'
'Ref^_'
'Message^_'
'create_'
'order^_'
'∅∅∅^_'
'C_'
'dest_'
'63^_'
'34^_'
'search^_'
'parameters_'
'32_'
'each^_'
'Key_'
'pure\u^_'
'System^_'
'><^_'
'your^_'
'other_'
'address_'
'min_'
're^_'
'save_'
'}"_'
'more^_'
'sum_'
'created^_'
'=%^_'
'ed\u^_'
'setup_'
'41^_'
'level^_'
'find_'
'0x0_'
'Meta^_'
'st^_'
'arg_'
'13_'
'URL^_'
'**^_'
'handler_'
'word_'
'All^_'
')\\^_'
'png^_'
'search_'
'environ_'
'print^_'
'attr_'
'81^_'
'N_'
'es_'
'able^_'
'bit_'
'Widget_'
'net^_'
'Config^_'
'opts_'
'delete^_'
'You^_'
':'_'
'ext^_'
'objects^_'
'column_'
'instance\u^_'
'node\u^_'
'42^_'
'Auto^_'
'By^_'
'27^_'
'36^_'
'Column_'
'email_'
'view^_'
'ctx_'
'']"_'
'>\\^_'
'admin^_'
'was^_'
'Image^_'
'and\u^_'
':`^_'
'86^_'
'tests^_'
'45^_'
'44^_'
'call_'
'call^_'
'Checker^_'
'14_'
'var^_'
'Source^_'
'url\u^_'
'le^_'
'device^_'
'Handler_'
'same^_'
'target\u^_'
'nodes_'
'66^_'
'Raises_'
'90^_'
'35^_'
'specified^_'
'B_'
'block^_'
'map^_'
'...^_'
'subprocess_'
'('^_'
'location^_'
'query^_'
'HTTP^_'
'cfg_'
'my^_'
'<=_'
'L_'
'left^_'
'time\u^_'
'           ^_'
'30_'
'to_'
'show^_'
'99^_'
'orm^_'
''/'_'
'may^_'
'82^_'
'uuid_'
'timeout_'
'38^_'
'0.5_'
'∅∅∅∅∅∅^_'
'67^_'
'New^_'
'errors_'
'cursor_'
'err_'
'into^_'
'Status^_'
'Node_'
'task_'
'Content^_'
'"\u\u^_'
'fn_'
':\\^_'
'now_'
'names^_'
'of\u^_'
'".^_'
'var_'
'60^_'
'50_'
'ax_'
'google^_'
'metadata_'
'system^_'
'startswith_'
'Class^_'
'ref_'
'information^_'
'Service^_'
'width^_'
'26^_'
'pop_'
'∅∅∅∅^_'
'pytest_'
'..^_'
'group\u^_'
'Config_'
'project_'
'Invalid^_'
'Object_'
'common_'
'Bit^_'
'directory^_'
'|_'
'a\u^_'
'id\u^_'
'View_'
'service_'
'key\u^_'
'context^_'
'make^_'
'find^_'
'where^_'
'source\u^_'
'load^_'
'delete_'
'response^_'
'send\u^_'
'm\u^_'
'as\u^_'
'connection_'
'exception_'
'false^_'
'access^_'
'lib^_'
'"<^_'
'Of^_'
'token^_'
'next^_'
'39^_'
'75^_'
'tree_'
'out\u^_'
'49^_'
'blank_'
'error\u^_'
'axis_'
'flags_'
'cache_'
'te^_'
'frame_'
'script^_'
'77^_'
'so^_'
'post_'
'required_'
'like^_'
'Check^_'
'st_'
'manager_'
'href^_'
'Open^_'
'dirname_'
'optional^_'
'link_'
'E_'
'zh^_'
'socket_'
'then^_'
'attrs_'
'!^_'
'does^_'
'delete\u^_'
'NAME_'
'68^_'
'format\u^_'
'>"_'
'del_'
'primary^_'
'ip_'
'json\u^_'
'1\u^_'
'define^_'
'total^_'
'math_'
'Equals_'
'Client^_'
'89^_'
'write\u^_'
'labels_'
'path\u^_'
'include^_'
'div^_'
'style^_'
'56^_'
'Index^_'
'record_'
'tags_'
'95^_'
'Mac^_'
'stderr_'
'spec_'
'we^_'
'∅∅∅∅∅∅∅^_'
'Net^_'
'element_'
'do\u^_'
'def^_'
'short^_'
'template^_'
'ce^_'
'col_'
'Set_'
'encode_'
'check_'
'arguments^_'
'47^_'
'\u\u"_'
'78^_'
'td^_'
'State^_'
'template\u^_'
'load_'
'f\u^_'
'two^_'
'open^_'
'results^_'
'l\u^_'
'query\u^_'
'gl^_'
'available^_'
'remove_'
'43^_'
'body^_'
'88^_'
'60_'
'18_'
'Path^_'
'filter\u^_'
'64_'
'Y_'
'Box_'
'on_'
'range^_'
'Header^_'
'location_'
'see^_'
'54^_'
'widget_'
'updated^_'
'parameter^_'
'raw\u^_'
'dictionary^_'
'filter^_'
''.'_'
'null_'
'mp^_'
'et^_'
'equal_'
'53^_'
'Size_'
'Input^_'
'plot_'
'Info_'
'It^_'
'options^_'
'meta_'
'Search^_'
'case^_'
'database^_'
'],^_'
'Colour^_'
'83^_'
'52^_'
'Boolean^_'
'interface^_'
'Output^_'
'argument^_'
'settings^_'
'62^_'
'parse_'
'position_'
'97^_'
'Response^_'
'ext_'
'min\u^_'
'92^_'
'no\u^_'
'"∅"_'
'71^_'
'enumerate_'
'attribute_'
'order_'
'match^_'
'58^_'
'webpage_'
'bin^_'
'buf_'
'0001^_'
'full^_'
'compile_'
'next\u^_'
'Version^_'
'Start^_'
'?'_'
'2\u^_'
'full\u^_'
'sleep_'
'Read^_'
'55^_'
'===============^_'
'step_'
'getattr_'
'GET^_'
'channel_'
'Wifi^_'
'stream_'
'valid^_'
'types^_'
'84^_'
'98^_'
'new_'
'point^_'
'51^_'
'defined^_'
'exception^_'
'iso^_'
'96^_'
'91^_'
'header^_'
'event\u^_'
''{^_'
'85^_'
'Mode^_'
'username^_'
'request\u^_'
'display^_'
'next_'
'use\u^_'
'46^_'
'"'_'
''\u\u\uCARET\u\u\u^'
'parent^_'
'g\u^_'
'html_'
'properties^_'
'resource_'
'filename^_'
'ar^_'
'User_'
'dev^_'
'79^_'
''[^_'
'17_'
'∅∅∅∅∅∅∅∅^_'
'24_'
'line\u^_'
'se^_'
'static^_'
'some^_'
'session^_'
'State_'
'Import^_'
'Server^_'
'Form_'
'F_'
'On^_'
'properties_'
'nt^_'
'OS^_'
'Mock_'
'parameters^_'
'Args^_'
'Parameters^_'
'tuple_'
'21_'
'binary\u^_'
'private^_'
'25_'
'init^_'
'io^_'
'element^_'
'parse^_'
'column^_'
'post^_'
'76^_'
'Button_'
'project\u^_'
'"'^_'
''(^_'
'Response_'
'Map^_'
'graph_'
'Base_'
'resource\u^_'
'account^_'
'total\u^_'
'59^_'
'bit^_'
'Request_'
'its^_'
'after^_'
'Up_'
'stats_'
'              ^_'
'93^_'
'callback_'
'My^_'
'global_'
'items^_'
'uri_'
'process^_'
'task^_'
'child_'
'Buffer^_'
'sequence^_'
'integer^_'
'args^_'
'service\u^_'
'server\u^_'
'87^_'
'rows_'
'remove^_'
'Resource^_'
'M_'
'client\u^_'
'object\u^_'
'message\u^_'
'Element_'
'img_'
'send^_'
'permission^_'
'volume^_'
'57^_'
'xml_'
'&_'
'me^_'
'package^_'
'94^_'
'.%^_'
'unicode\u^_'
'points_'
'copy^_'
'Hash^_'
'Label_'
'formats_'
'tests_'
'domain^_'
'R_'
'local\u^_'
'sorted_'
'aa^_'
'non^_'
'device_'
'auth_'
'==^_'
'Code^_'
'/"_'
'top^_'
'category^_'
'Vector^_'
've^_'
'md^_'
'')^_'
');^_'
'field\u^_'
'{}^_'
'grid_'
'sub_'
'With^_'
'Thost^_'
'See^_'
'View^_'
'entry^_'
'content\u^_'
'DIR_'
'Update^_'
'"\u^_'
'1000_'
'old\u^_'
'Table^_'
'Index_'
'than^_'
'dumps_'
'table\u^_'
'decode_'
'queue_'
'!'_'
'reference^_'
'Message_'
'staticmethod_'
'select^_'
'system_'
'DB^_'
'text\u^_'
'Time_'
'Random^_'
'per^_'
'requests_'
'Delete^_'
'also^_'
'unique^_'
'Class_'
'></^_'
'show\u^_'
'obj^_'
'//^_'
'cache^_'
'Iterator^_'
'Information^_'
'visibility_'
'8859^_'
'admin_'
'Do^_'
'Core_'
'job^_'
'columns_'
'fake\u^_'
'failed^_'
'Line^_'
'Command_'
'IP^_'
'schema_'
'author^_'
'prefix^_'
'classmethod_'
'stream^_'
'sub^_'
'(%^_'
'Sub^_'
'added^_'
'init\u^_'
'Action_'
'Log^_'
'batch\u^_'
'comment^_'
'7701^_'
''∅∅'_'
'verbose\u^_'
'window_'
'abc^_'
'ua^_'
'End^_'
'variable^_'
'src_'
'verbose_'
'mask_'
'users^_'
'ne^_'
'metadata^_'
'change^_'
'post\u^_'
':'^_'
'Query^_'
'ff^_'
'single^_'
'remove\u^_'
'migrations_'
'tion^_'
'item\u^_'
'ops_'
'height^_'
'th^_'
'csv^_'
'la^_'
'','_'
'groups_'
'zeros_'
'directory_'
'Function^_'
'da^_'
'scope_'
'An^_'
'tokens_'
'ing\u^_'
'ref^_'
'js^_'
''$^_'
'Action^_'
':&#^_'
'year_'
'task\u^_'
'extend_'
'images^_'
'Logger_'
'configuration^_'
'bytes^_'
'datetime^_'
'block_'
'font^_'
'In_'
'40_'
'fname_'
'regex_'
''-'_'
'\\.^_'
'process\u^_'
'before^_'
'auto^_'
'Order^_'
'$'_'
'called^_'
'tuple^_'
'html\u^_'
'bytes_'
'Language^_'
'save\u^_'
'limit_'
'public^_'
'label\u^_'
'pattern_'
'record^_'
'19_'
'domain_'
'register_'
'handle_'
'Client_'
'Byte^_'
'hash_'
'loads_'
'help^_'
'0._'
'driver_'
'expected^_'
'position^_'
'dbse_'
'bool_'
'Stream^_'
'style_'
'words_'
'exc_'
'addr_'
'returned^_'
'ue^_'
'row^_'
'layer_'
'first\u^_'
'rs^_'
'keys^_'
'Max^_'
'forms_'
'buffer^_'
'ts_'
'unit^_'
'active^_'
'vars_'
'hasattr_'
'been^_'
'details^_'
'left_'
'not\u^_'
'folder_'
'Web^_'
'generate\u^_'
'Write^_'
'call\u^_'
'matrix_'
'show_'
'Layout_'
'cb^_'
'``\u\u^_'
'Box^_'
'contains^_'
'P_'
'tmp^_'
'el^_'
'OR^_'
'dt_'
'Landroid^_'
'shape^_'
'ation^_'
'tr^_'
'Manager_'
'app\u^_'
'render_'
'ch^_'
'tags^_'
'now^_'
'program^_'
'->_'
'factory_'
'contrib^_'
'inputs_'
'params^_'
'!"_'
'connection^_'
'stack_'
'warning_'
'literals_'
'box_'
'timestamp_'
'				_'
'},^_'
'One^_'
'ion_'
'Dir_'
'channel^_'
'expression^_'
'hash^_'
'attributes_'
'reverse_'
'payload_'
'22_'
'route_'
'Manager^_'
'version\u^_'
'"{^_'
'web^_'
'by_'
'Keyword_'
'loc_'
'process_'
'pop^_'
'point_'
'op^_'
'meta^_'
'.\u\u^_'
'button_'
'desc_'
'Property_'
'Level^_'
'∅∅∅∅∅∅∅∅∅^_'
'render\u^_'
'("^_'
'IO^_'
'there^_'
'profile^_'
'language^_'
'login^_'
'         _'
'score_'
'rule_'
'messages_'
'page\u^_'
'debug^_'
'init_'
'23_'
'media^_'
'views_'
'home^_'
'cp^_'
'download\u^_'
'IO_'
'ui_'
'encoding_'
',\\^_'
'Element^_'
'CP^_'
'choices_'
'red^_'
'value\u^_'
'temp_'
'struct_'
'xfe^_'
'frame^_'
'E\u^_'
'pd_'
'"#^_'
'rs_'
';&#^_'
'ts^_'
'Policy_'
'And^_'
'job_'
'absolute\u^_'
'raw^_'
'Page^_'
'252_'
'br^_'
'volume_'
'between^_'
'Number_'
'Event_'
'cc^_'
'insert_'
'ca^_'
'deleted^_'
'stop_'
'li^_'
'G_'
'attributes^_'
'Interface^_'
'img^_'
'Window^_'
'save^_'
'px^_'
'Edit^_'
'Command^_'
'io_'
'Link^_'
'FROM^_'
'without^_'
'Variable^_'
'Image_'
'train\u^_'
'dataset_'
'DEFAULT\u^_'
'result\u^_'
'duration^_'
'***************^_'
'mean_'
'Many^_'
'NAME^_'
'sample^_'
'Http^_'
'np^_'
'timestamp^_'
'val^_'
'Frame_'
'Note^_'
'b\u^_'
'0000^_'
'engine_'
'suffix_'
'layout_'
'paths_'
'Point^_'
'global^_'
']"_'
'col^_'
'zip_'
'len^_'
'Instance^_'
'Remove^_'
'part^_'
'pass^_'
'parts_'
'step^_'
'following^_'
'box^_'
'file\u\u_'
'scale_'
'Control^_'
'extra\u^_'
'tmp_'
'sample\u^_'
'methods^_'
'ub^_'
'doc^_'
'POST^_'
'pi_'
'un^_'
'section_'
'span^_'
'sql_'
'fp_'
'namespace_'
'Unit^_'
'ad^_'
'section^_'
'events_'
'um^_'
'unit_'
'`.^_'
'v\u^_'
'exceptions_'
'opt_'
'GL^_'
'none^_'
'valid\u^_'
'player_'
'Run^_'
'vector^_'
'control^_'
'KEY^_'
'profile_'
'invalid^_'
'T\u^_'
'urls_'
'first_'
'uid_'
'tr_'
'validate\u^_'
'alias_'
'D\u^_'
'site^_'
'date\u^_'
'ud^_'
'Int^_'
'window^_'
'abs_'
'about^_'
'tree^_'
'Map_'
'train_'
'500_'
'0.1_'
'Current^_'
'policy_'
'Use^_'
'CJK^_'
'space^_'
'Gdi^_'
'github^_'
'|\\^_'
'containing^_'
'buffer_'
'\\"^_'
'temp\u^_'
'author_'
'property^_'
'device\u^_'
'Network^_'
'Qgs^_'
'limit^_'
'rate_'
'ble^_'
'IDEOGRAPH^_'
'module\u^_'
'ERROR^_'
'already^_'
'Context^_'
'Deleter^_'
'UNIFIED^_'
'functions^_'
'Failed^_'
'Account^_'
'document^_'
'job\u^_'
'IN^_'
'rtype^_'
'auth\u^_'
'255^_'
'42_'
'either^_'
'{}"_'
'cluster^_'
'class\u^_'
'ns_'
'stop^_'
'Reference^_'
'SELECT^_'
'able_'
'func^_'
'iter_'
'lang^_'
'git^_'
'plugin^_'
'upload^_'
'host\u^_'
'commit_'
'Socket^_'
'packages_'
'ic^_'
'Trace^_'
'platform_'
'Chosen^_'
'ab^_'
'Session^_'
'index\u^_'
'network_'
'TYPE\u^_'
'support^_'
'info\u^_'
'xbf^_'
'grid^_'
'US^_'
'Security^_'
'compute^_'
'under^_'
'current_'
'normal^_'
'site_'
'ds_'
'install^_'
'.0_'
'ex_'
'timeout^_'
'download^_'
'right_'
'nd^_'
'PATH_'
'Array^_'
'Count_'
'resources_'
'Public^_'
'uc^_'
'200^_'
'Power^_'
'block\u^_'
'Container^_'
'exp_'
'statement^_'
'|'_'
'msg^_'
'argparse_'
'Filter^_'
'native\u^_'
'else^_'
'na^_'
'children_'
'features_'
'outfile_'
'Table_'
'Process^_'
'class\u\u_'
'edit^_'
'await_'
'android^_'
'i\u^_'
'Main^_'
'etc^_'
'26_'
'28_'
'button^_'
'1._'
'state\u^_'
'∅∅∅∅∅∅∅∅∅∅∅∅∅∅∅^_'
'repo_'
'handle\u^_'
'game_'
'send_'
'unicode_'
'operation^_'
'xfc^_'
'vim^_'
'match\u^_'
'response\u^_'
'player^_'
'tools_'
'flag_'
'JSON^_'
'alpha_'
'I_'
'"(^_'
'31_'
'sys^_'
'based^_'
'             ^_'
'kw_'
'Protocol^_'
'ip\u^_'
'arguments_'
'pool_'
'80_'
'ge^_'
'.,^_'
'fail^_'
'xef^_'
'translate_'
'display\u^_'
'X\u^_'
'storage^_'
'jpg^_'
'command\u^_'
'xrange_'
'{}'_'
'volume\u^_'
'int\u^_'
'FORMAT_'
'\u\u(^_'
'signal_'
'filters_'
'over^_'
'old^_'
'running^_'
'container^_'
'00_'
'store_'
'xcd^_'
'called\u^_'
'xfd^_'
'selected^_'
'seq_'
'such^_'
'action\u^_'
'constants_'
'messages^_'
'basename_'
'XML^_'
'plugin_'
'Copy^_'
'network\u^_'
'ED^_'
'rate^_'
'namespace^_'
'container_'
'))^_'
'sa_'
'protocol^_'
'ee^_'
'csv_'
'Port^_'
'Exception^_'
'fake^_'
'App^_'
'setup\u^_'
'repr_'
'pk_'
'":"^_'
'NOT^_'
'xae^_'
'xbd^_'
'abspath_'
'Integer_'
'my\u^_'
'xbe^_'
'offset^_'
'sort_'
'ec^_'
'dim_'
'day^_'
'AS^_'
'Color_'
'skip^_'
'total_'
'xcf^_'
'product^_'
'groups^_'
'            _'
'contents_'
'graph^_'
'matrix^_'
'net_'
'category_'
'Context_'
'random\u^_'
'o\u^_'
'memory^_'
'docs^_'
'at_'
'exists^_'
'common^_'
'parent\u^_'
'='_'
'xfb^_'
'General^_'
'counter_'
'select_'
'here^_'
'report^_'
'http\u^_'
'Block^_'
'xdf^_'
'try^_'
'enabled^_'
'stream\u^_'
'urllib_'
'ss^_'
'per\u^_'
'll^_'
'pack_'
'entries_'
'sh^_'
'modules_'
'include_'
'Result^_'
'commands_'
'AND^_'
'down^_'
'----------^_'
'char_'
'numpy^_'
'random^_'
'xed^_'
'loop_'
'27_'
'custom^_'
'users_'
'layer^_'
'provided^_'
'port\u^_'
'Option^_'
'Color^_'
'Dialog_'
'glob_'
'plot^_'
'reader_'
'Length^_'
'exist^_'
'ON^_'
'extract\u^_'
'xeb^_'
'Impl^_'
'-=_'
'Entry^_'
'localhost^_'
'classes_'
''\\\\^_'
'Channel^_'
'collections_'
',-^_'
'ac^_'
'ry^_'
'Connection^_'
'Argument^_'
'writer_'
'fd_'
'contrib_'
'ment^_'
'var\u^_'
'mod_'
'off^_'
'lt^_'
'actions_'
'link\u^_'
'er\u^_'
'Implemented^_'
'it_'
'xce^_'
'LOG_'
'duration_'
'word^_'
'∅∅∅∅∅∅∅∅∅∅^_'
'comment_'
'feature^_'
'Token^_'
'primary\u^_'
'font_'
'xaf^_'
'specific^_'
'header\u^_'
'diff_'
'123^_'
'>>_'
'script_'
'passed^_'
'need^_'
'pygame_'
'cache\u^_'
'global\u^_'
'role^_'
'indices_'
'hello^_'
'cannot^_'
'xaa^_'
'Meta_'
'gtk_'
'Tests^_'
'bot_'
'age^_'
'uuid^_'
'Task^_'
'68_'
'errors^_'
'xbc^_'
'Group_'
'tag\u^_'
'xcc^_'
'xbb^_'
'xdb^_'
'note^_'
'raw_'
'callback^_'
'views^_'
'src\u^_'
'they^_'
'(\\^_'
'nodes^_'
'auto\u^_'
'/>^_'
'Build^_'
'0\u^_'
'valid_'
'Next^_'
'obj\u^_'
'points^_'
'][^_'
'When^_'
'menu^_'
'foo_'
'xfa^_'
'master^_'
'Windows^_'
'temp^_'
'Format^_'
'extension_'
'controller_'
'menu_'
'work^_'
'success_'
'Free^_'
'expr_'
'number\u^_'
'xec^_'
'Software^_'
'units_'
'xba^_'
'ms^_'
'cur_'
'Please^_'
'login\u^_'
'NS^_'
'order\u^_'
'session\u^_'
'Window_'
'folder^_'
'\u%^_'
'xad^_'
'xcb^_'
'uf^_'
'simple^_'
'Line_'
'tmp\u^_'
'close^_'
'upper_'
'login_'
'Description^_'
'Tree^_'
'display_'
'Last^_'
'Load^_'
'shutil_'
'setup^_'
'NULL^_'
'\u'_'
'view\u^_'
'free^_'
'child^_'
'active_'
'seconds^_'
'Access^_'
'Project^_'
'xee^_'
'Template^_'
'build_'
''∅∅∅∅'_'
'ir^_'
'basis_'
'conf^_'
'year^_'
'struct^_'
'array\u^_'
'database_'
'..."_'
'internal^_'
'cmd\u^_'
'sub\u^_'
'			^_'
'sum^_'
'cell_'
'endswith_'
'raise^_'
'extra^_'
'xde^_'
'binary^_'
'Cache^_'
'rule^_'
'second^_'
'xda^_'
'thread^_'
'DEBUG_'
'mapping_'
'R\u^_'
'2.0_'
'Factory_'
'Print^_'
'images_'
'one_'
'xab^_'
'xdd^_'
'multiple^_'
'mark_'
'man^_'
'identifier^_'
'disk^_'
'k\u^_'
'Local^_'
';\\^_'
'flag^_'
'Qt_'
'scale^_'
'GL\u^_'
'Parse^_'
'back^_'
'library^_'
'while^_'
'account_'
'dir\u^_'
'standard^_'
'dev_'
'plot\u^_'
'center^_'
'90_'
'sample_'
'Form^_'
'currently^_'
'rect_'
'vals_'
'missing^_'
''*.^_'
'strings^_'
'<<_'
'py_'
'res^_'
'pt^_'
'move^_'
'none_'
'map\u^_'
'}\\^_'
'fmt_'
'df^_'
'Function_'
'Result_'
'row\u^_'
'cf^_'
'pos^_'
'supported^_'
'xdc^_'
'layers_'
'allow^_'
'Runtime^_'
'pre^_'
'HAVE^_'
'string\u^_'
'WHERE^_'
'xac^_'
'cd^_'
'rel^_'
'W_'
'\u\u\uCARET\u\u\u^_'
'str\u\u_'
'lang_'
'redirect_'
'blue^_'
'sort\u^_'
'want^_'
'lines^_'
'ies^_'
'"/"_'
'usr^_'
'policy^_'
'me_'
'batch^_'
'2015^_'
'form\u^_'
'xea^_'
'HTML^_'
'remote^_'
'Point_'
'sqrt_'
''*^_'
'descriptor_'
'replace^_'
'Ag^_'
'day_'
'ke^_'
'","^_'
'([^_'
'go^_'
'Location^_'
'TEST\u^_'
'mean^_'
'Status_'
'click_'
'thread_'
'txt_'
'elements^_'
'al_'
'dc^_'
'xml\u^_'
'fig_'
'classes^_'
'variables^_'
'Cisco^_'
'128_'
'weight^_'
'Standard^_'
'wait\u^_'
'different^_'
'raises_'
'version\u\u_'
'region^_'
'29_'
'arr_'
'elem_'
'Queue^_'
'put_'
'As^_'
'access\u^_'
'TYPE^_'
'weights_'
'="_'
'round_'
'real\u^_'
'127^_'
'Rate^_'
'>,^_'
'Menu^_'
'less^_'
'both^_'
'package\u^_'
'async_'
'+'_'
'gen^_'
'iteritems_'
'part_'
'dd^_'
'pid_'
'"[^_'
'warnings_'
'Empty^_'
'del^_'
'xca^_'
'Application_'
'ch_'
'gf_'
'SIZE_'
'language_'
'board_'
'instead^_'
'handle^_'
'states_'
'V_'
'builder_'
'variables_'
''∅∅∅'_'
'rules_'
'KEY_'
'Comment_'
'0x8_'
'main\u^_'
'schema^_'
'1024_'
'48_'
'Module^_'
'boolean^_'
'IS^_'
'bar_'
'Code_'
'install\u^_'
'interface_'
'author\u\u_'
'done^_'
'bc^_'
'fa^_'
'404_'
'their^_'
'Enum^_'
'checker^_'
'P\u^_'
'export^_'
'keyword^_'
'Details^_'
'alpha^_'
'cluster_'
'events^_'
'Frame^_'
'gen\u^_'
'FTDC^_'
'Found^_'
'filepath_'
'ok_'
'36_'
'exit^_'
'Send^_'
'enable^_'
'unicode^_'
'Unknown^_'
'Show^_'
'SQL^_'
'ct_'
'flags^_'
'rxn_'
'Email^_'
'dist_'
'atom^_'
'Change^_'
'Volume^_'
'cs^_'
'convert\u^_'
'found_'
'pool^_'
'Application^_'
'cmd^_'
'ref\u^_'
'K_'
'NO^_'
'weight_'
'H_'
'et_'
'em^_'
'Instance_'
'tools^_'
'lock_'
'resources^_'
'33_'
'role_'
'release^_'
'35_'
'dict\u^_'
'attr^_'
'protected^_'
'Q_'
'unknown^_'
'kind_'
'zip^_'
'comparison\u^_'
'Total^_'
'character^_'
'ls^_'
'"∅∅"_'
'characters^_'
'elements_'
'defaults_'
'cell^_'
'tf^_'
'``,^_'
'tab^_'
'Layer^_'
'Multi^_'
'192^_'
'prop_'
'choice_'
'report_'
'h\u^_'
'str\u^_'
'six_'
'cv2_'
'Copyright^_'
'sort^_'
'Method^_'
'GNU^_'
'props_'
'score^_'
'"$^_'
'Select^_'
'success^_'
'34_'
'vm_'
'rc^_'
'within^_'
'Array_'
'meta\u^_'
'IC^_'
'Example^_'
'cur\u^_'
'stat_'
'Password^_'
'indent_'
'param\u^_'
'Serialize^_'
'OF^_'
'IOS^_'
'sep_'
'whether^_'
'Prefix^_'
'remote\u^_'
'details_'
'Y\u^_'
'Migration_'
'2014^_'
'Sequence^_'
'modules^_'
'img\u^_'
'context\u^_'
'Reaction^_'
'Descriptor_'
'FF^_'
'Min^_'
'generate^_'
'cols_'
'Storage^_'
'Host^_'
'Mixin_'
'fs_'
'size\u^_'
'green^_'
'Params_'
'XR^_'
'help\u^_'
'Make^_'
'Target^_'
'links_'
'Custom^_'
'Job^_'
'3'
'45_'
'delta_'
'ignore^_'
'element\u^_'
'400_'
'Record^_'
'':'_'
'findall_'
'samples_'
'collection_'
'Button^_'
'protocol_'
'dirs_'
'queue^_'
'mod\u^_'
'/{^_'
'∅'
'cluster\u^_'
'custom\u^_'
'token\u^_'
'co^_'
'ef^_'
'ia^_'
'package_'
'column\u^_'
'features^_'
'el_'
''\u'_'
'zero^_'
'strftime_'
'``.^_'
'citation_'
'DATA_'
'Label^_'
'le_'
'them^_'
'received^_'
'dataset^_'
'Position^_'
'axis^_'
'lat^_'
'At^_'
'ize_'
'top_'
'Up^_'
'128^_'
'all\u\u_'
'region_'
'initial^_'
'timedelta_'
'mapping^_'
'through^_'
'dot_'
'Empty\u^_'
'st\u^_'
'matches_'
'colors_'
'Parameter^_'
'empty_'
'icon^_'
'changed^_'
'helper_'
'Dict^_'
'msg\u^_'
'interval_'
'signature^_'
'ids^_'
'open\u^_'
'75_'
'zone^_'
'rb^_'
'encoding^_'
'Report^_'
'summary^_'
'Policy^_'
'symbol_'
'stack^_'
'nt_'
'mod^_'
'Feature^_'
'il^_'
'fc^_'
'ity^_'
''*'_'
''"^_'
'append^_'
'Entry_'
'fs^_'
'admin\u^_'
'hostname_'
'"/>^_'
'include\u^_'
'Page_'
'up_'
'isfile_'
'depth_'
'configuration_'
'basic^_'
'being^_'
'Attribute_'
'ind_'
'python_'
'most^_'
'fe^_'
'Only^_'
'Str_'
'Datum_'
'Widgets_'
''&^_'
'`,^_'
'entity_'
'finally_'
'ps^_'
'ers^_'
'C\u^_'
'res\u^_'
'division_'
'Programming^_'
'F\u^_'
'mask^_'
'Extractor_'
'instances^_'
'connect^_'
'requests^_'
'0x10_'
'if\u^_'
'N\u^_'
'backend_'
'feature\u^_'
'gt^_'
'complex^_'
'Profile^_'
'ent^_'
'bb^_'
'outputs_'
'Enable^_'
'001^_'
'Mask^_'
'numeric\u^_'
'Float^_'
'ba^_'
'0x4_'
'insert^_'
'threading_'
'rt^_'
'way^_'
'person^_'
'matplotlib_'
'thumbnail^_'
'handler^_'
'Widget^_'
'register^_'
'security^_'
'dbinstance_'
'css^_'
'environment^_'
'execute\u^_'
'agent^_'
'ra^_'
'")^_'
''>^_'
'head_'
'Fake^_'
'active\u^_'
'Plugin^_'
'Value\u^_'
'proxy^_'
'application_'
'256_'
'these^_'
'Thread_'
'typedef^_'
'component^_'
'ISO^_'
'yes^_'
'shell_'
'manager^_'
'how^_'
'gen_'
']\\^_'
'owner^_'
'background^_'
'stats^_'
'hm^_'
'pi^_'
'TYPE_'
'original^_'
'Factory^_'
'Metadata^_'
'put^_'
'2'
'entry\u^_'
'Configuration^_'
'Input_'
'America^_'
'VERSION_'
'ID\u^_'
'ty^_'
'extensions_'
'screen_'
'70_'
'SET^_'
'seconds_'
'rc_'
'storage_'
'month_'
'real^_'
'Route^_'
'matching^_'
'es\u^_'
'clear_'
'OK^_'
'IE_'
'uri^_'
'clear^_'
'eval_'
'Unicode^_'
'um_'
'3\u^_'
'coords_'
'Property^_'
'select\u^_'
'math^_'
'repo^_'
'patterns_'
'~^_'
'56_'
'warn_'
'extension^_'
'release_'
'>=^_'
'Out^_'
'document_'
'train^_'
'37_'
'LIST^_'
'units^_'
'enum_'
'im_'
'w\u^_'
'record\u^_'
'definition^_'
'Stop^_'
'wait^_'
'ST^_'
'Auth^_'
'...'_'
'where_'
'Server_'
'Deserialize^_'
'summary_'
'exc\u^_'
'selection_'
'am^_'
'ctypes_'
'env^_'
'pdf^_'
'Tx^_'
'generated^_'
'collection^_'
'reshape_'
'split^_'
'templates^_'
'equal^_'
'Helper^_'
'opt^_'
'ok^_'
'agent_'
'traceback_'
'Hello^_'
'term^_'
'frame\u^_'
'p1_'
'65_'
'Version_'
'game^_'
'existing^_'
'//_'
'operator^_'
'desc^_'
'present^_'
'Bar^_'
'orm_'
'ul^_'
'44_'
's1_'
'operations^_'
'long\u^_'
'repr\u\u_'
'usage^_'
'tasks_'
'ord_'
'2016^_'
'sequence_'
'only_'
'Ordered^_'
'loss_'
'seed_'
'ea^_'
'Remote^_'
'VALID\u^_'
'wrapper_'
'enabled_'
'que^_'
'38_'
'ame_'
'ma^_'
'verbose^_'
'validate_'
'Accessor^_'
''[?]^_'
'compute\u^_'
'numbers^_'
'packet^_'
'vm^_'
'Num^_'
'?"_'
'member^_'
'external^_'
'changed_'
'.\u^_'
'Session_'
'endpoint_'
'move_'
'syntax^_'
'reason_'
'ta^_'
'41_'
'usage_'
'another^_'
'Level_'
'outer\u^_'
'modify^_'
'dialog_'
'identifier_'
'Virtual^_'
'allow\u^_'
'randint_'
'associated^_'
'chosen^_'
'∅∅∅∅∅∅∅∅∅∅∅^_'
'provider^_'
'head^_'
'Bad^_'
'variable_'
'via^_'
'cloud^_'
'Variable_'
'wait_'
'fail_'
'cs_'
'push^_'
'except^_'
'Validation^_'
'ER^_'
'1'
'share^_'
'ls_'
'software^_'
'Filter_'
'count\u^_'
'POST_'
'win^_'
'Settings^_'
'POINTER_'
'attribute\u^_'
'entity^_'
'norm_'
'"."_'
'dump_'
'allowed^_'
's2_'
'dict\u\u_'
'actual_'
'Service_'
'Stack^_'
'http_'
'no_'
'complete^_'
'Options_'
'icon_'
'/(?^_'
'arg\u^_'
'Admin_'
'nullable_'
'Video^_'
'low^_'
'reset^_'
'provider_'
'ast_'
'2013^_'
'L\u^_'
'schemas^_'
'edge_'
'sp_'
'direction_'
'Proxy^_'
'labels^_'
'Tool^_'
'verify\u^_'
'M\u^_'
'possible^_'
'MAX\u^_'
'x1_'
'tv^_'
'wiki^_'
'distance_'
'}/^_'
'ng_'
'windows^_'
'days_'
'-------^_'
'color\u^_'
'batch_'
'iterator^_'
'plugin\u^_'
'once\u^_'
'sock_'
'area^_'
'iprot_'
'Obj_'
'sphinx^_'
'Find^_'
'])^_'
'256^_'
'modified^_'
'vm\u^_'
'55_'
'99_'
'loop^_'
'change\u^_'
'\u\u()``^_'
'proxy_'
'-'_'
'extract_'
'addr^_'
'built^_'
'cpp\u^_'
'ipv^_'
'what^_'
'DATA^_'
'convert^_'
'unnamed^_'
'times^_'
'Operator_'
'ie^_'
'cat^_'
'oprot_'
'layout^_'
'mail^_'
'cfg^_'
'changes^_'
'600_'
'steps_'
'one\u^_'
'FILE^_'
'43_'
'beta^_'
'registered^_'
'flask_'
'additional^_'
'PATH^_'
'::=^_'
'Mode_'
'draw^_'
'Flow^_'
'Has^_'
'["^_'
'counts_'
'pattern^_'
'*,^_'
'rows^_'
'te_'
'fd^_'
'created_'
'times_'
'channel\u^_'
'audio^_'
'dot^_'
'initial\u^_'
'extension\u^_'
'ui^_'
'FILE_'
'split\u^_'
'46_'
'stop\u^_'
'typehandlers_'
'pickle_'
'Tree_'
'Resource_'
'virtual^_'
'52_'
'fr^_'
'arange_'
'"""'
'serialize_'
'term_'
'{\\^_'
'Options^_'
'implemented^_'
'A\u^_'
'otherwise^_'
'Raises^_'
'=\\"^_'
'detail^_'
'owner_'
'platform^_'
'Thread^_'
'suite^_'
']{^_'
'Left^_'
'amp^_'
'setting^_'
'Connection_'
'51_'
''+'_'
'transform_'
'case_'
'history_'
'tempfile_'
'rules^_'
'Case^_'
'kind^_'
'special^_'
'angle_'
'shared^_'
'Display^_'
'First^_'
'just^_'
'columns^_'
'many^_'
'report\u^_'
'apps^_'
'could^_'
'php^_'
'component_'
'power^_'
'suite_'
'67_'
'|'
'Call^_'
'CA^_'
'always^_'
'INFO^_'
'AA^_'
'uses^_'
'destination^_'
'∅∅'
'feature_'
'space_'
'fit_'
'implementation^_'
'setattr_'
'Category^_'
'commands^_'
'account\u^_'
'ype_'
'Range^_'
'enum\u^_'
'because^_'
'enter^_'
'gmail^_'
'There^_'
'interval^_'
'headers^_'
'repo\u^_'
'000000000000000^_'
'ir_'
'proc_'
'ml^_'
'72_'
'word\u^_'
'secret^_'
'()'_'
'39_'
'feed^_'
'maximum^_'
'nobject^_'
'Or^_'
'testing^_'
'ms_'
'()``^_'
'final\u^_'
'53_'
'gs^_'
'blocks_'
'scope^_'
'der^_'
'can\u^_'
'eq_'
'axes_'
'ED_'
'col\u^_'
'unique_'
'Active^_'
'metavar_'
'specify^_'
'sess_'
'Can^_'
'removed^_'
'Basic^_'
'testing_'
'300_'
'fixture_'
'metrics_'
'de_'
'amount^_'
'packet_'
'ae^_'
'slug_'
'Document^_'
'subject^_'
'flush_'
'helpers_'
'v2_'
'59_'
'track^_'
'Tag_'
''"'_'
'ian^_'
'fb^_'
'+'
'{"^_'
'contact^_'
'cb_'
'Serializer_'
'u\u^_'
'mat_'
'static\u^_'
'Post^_'
'"\\\\^_'
'mobj_'
'0'
'Ip^_'
'expect_'
'sources_'
'ate^_'
'ot^_'
'access_'
'rec_'
'edges_'
'les^_'
'Layer_'
'ar_'
'float32_'
'MS'
'wb^_'
'force^_'
'","_'
'loader_'
'Queue_'
'Column^_'
'world^_'
'history^_'
'Offset^_'
'gz^_'
'plugins_'
'Date_'
'CC^_'
'spec^_'
'local_'
'child\u^_'
'K\u^_'
'Positive^_'
'attr\u^_'
'47_'
'q\u^_'
'container\u^_'
'Right^_'
'player\u^_'
'widget^_'
'Types_'
'ING^_'
'common\u^_'
'Names_'
'Raw^_'
'eb^_'
'other\u^_'
'mm^_'
'top\u^_'
'master\u^_'
'ndarray^_'
'flow^_'
'tion_'
'method\u^_'
'contain^_'
'ENTRY^_'
'Gtk_'
'tool^_'
'Save^_'
'lists^_'
'Width_'
'Log_'
'af^_'
'execution^_'
'est^_'
'targets_'
'49_'
'calls_'
'center_'
'82_'
'amount_'
'Database^_'
'author\u^_'
'services^_'
'4'
'ps_'
'Ljava^_'
'chain_'
'bad^_'
'uploader^_'
'permissions^_'
'tar^_'
'~'
'op\u^_'
'th_'
'cos_'
'byte^_'
'ro^_'
'Op^_'
'margin^_'
'setdefault_'
'ex^_'
'projects^_'
'\u\u\uCARET\u\u\u'
'baz^_'
'feeds^_'
'Rule^_'
'Flags^_'
'series^_'
'subject_'
'parser^_'
'urlparse_'
'ES^_'
';-^_'
'Handler^_'
'contents^_'
'TABLE^_'
'play^_'
'prev\u^_'
'freq_'
'invalid\u^_'
'func\u^_'
'54_'
'web'
'Style^_'
'xmlns^_'
'al\u^_'
'small^_'
'entries^_'
'ds^_'
'azure^_'
'Usage^_'
'clean\u^_'
'def'
'tables_'
'Module_'
'links^_'
'cr_'
'inst_'
'Enter^_'
'kwargs^_'
'DB_'
'{'
'ck^_'
'lower^_'
'61_'
'PIPE_'
'Title^_'
'join^_'
'parsed\u^_'
'cli_'
'Settings_'
'single\u^_'
'channels_'
'member_'
'services_'
'comments^_'
'CF^_'
'Str^_'
'Non^_'
'71_'
'doc\u^_'
'structure^_'
'done_'
'factor_'
'sent^_'
'TO^_'
'copy\u^_'
''='_'
'terms^_'
'84_'
'namespaces_'
'Abstract^_'
'filenames_'
'Lexer^_'
'Person^_'
',"^_'
'Close^_'
'edge^_'
'}.^_'
'seq^_'
'symbol^_'
'Other^_'
'v1_'
'Directory^_'
'upload\u^_'
'area_'
'radius_'
'named^_'
'records_'
'product_'
'this\u^_'
'ies_'
'Product^_'
'Enum_'
'Found_'
'66_'
'Menu_'
'generator^_'
'would^_'
'Register^_'
'Missing^_'
'${^_'
'ion\u^_'
'distance^_'
'sp^_'
'63_'
'\u{^_'
'linux^_'
'eq\u_'
'side\u^_'
'empty\u^_'
'Tensor^_'
'attrib_'
'middleware^_'
'don^_'
'master_'
'sync^_'
'					_'
'CONF_'
'execute^_'
'place^_'
'urllib2_'
'DE^_'
'Cannot^_'
'at\u^_'
'ROOT_'
'Match^_'
'58_'
'AL^_'
'ki^_'
'threshold_'
'functions_'
'250_'
'disabled^_'
'alt^_'
'mac^_'
'Api^_'
'con_'
'2012^_'
'Lexer_'
'ize^_'
'packages^_'
'actions^_'
'End_'
'vertical^_'
'corresponding^_'
'85_'
'draw_'
'pos\u^_'
'driver^_'
'z\u^_'
'raised^_'
''./^_'
'dst_'
'repository^_'
'ERROR_'
'os\u^_'
'Admin^_'
'dependencies_'
'di^_'
'dx_'
'team^_'
'01_'
'sha'
'bf^_'
'requires_'
'OK_'
'AC^_'
'function\u^_'
'95_'
'THOST^_'
'Phy^_'
'code\u^_'
'selected\u^_'
'Checker\u^_'
'fill_'
'ignore\u^_'
'ka^_'
'three^_'
'Bytes^_'
'bottom^_'
'NT^_'
'effect_'
'DIR^_'
'/$'_'
'ls'
'Z_'
'vector_'
'data'
'KEY\u^_'
'records^_'
'Token_'
'even^_'
'Game^_'
'00000000^_'
'graph\u^_'
'final^_'
'card_'
'setter_'
'console^_'
'"""\\^_'
'domain\u^_'
'best\u^_'
'align^_'
'79_'
'Section^_'
'ANY^_'
'script\u^_'
'Notify^_'
'0.2_'
'warning^_'
'GET_'
'signal^_'
'rv_'
'Component^_'
'pages_'
'FLAGS_'
'words^_'
'ascii^_'
'control_'
'original\u^_'
'Script^_'
'age_'
'Child_'
'Static^_'
'test'
'works^_'
'containing\u^_'
'-'
'Down^_'
'cell\u^_'
'Utf8_'
'57_'
'left\u^_'
'option\u^_'
'last'
'screen^_'
'dtype^_'
'Sample^_'
'&'
'backend^_'
'df\u^_'
'astype_'
'tensorflow_'
'bd^_'
'nn_'
'Down_'
'se_'
'apply^_'
'96_'
'sin_'
'={^_'
'border^_'
'tasks^_'
'video_'
'break^_'
'country^_'
'accounts^_'
'78_'
'media\u^_'
'Permission^_'
'got^_'
'ions^_'
'Pool^_'
'generator_'
'Magic^_'
'qs_'
'later^_'
'ter^_'
'canvas_'
'text'
'non\u^_'
'queryset_'
'Url_'
'2._'
'Foo^_'
'Documentation^_'
'note_'
'@'
'Global^_'
'fill^_'
'ya'
'Double^_'
'76_'
'rd^_'
'keywords_'
'ss_'
'read'
'gs_'
'unpack_'
't1_'
'snapshot^_'
'rest^_'
'Django^_'
'77_'
'Middleware^_'
'69_'
'tab_'
'skip_'
'net\u^_'
'es'
'related\u^_'
'isdir_'
'since^_'
'bf'
'samples^_'
'socket^_'
'youtube^_'
'uid^_'
'Created^_'
'Optional^_'
'readline_'
'pt_'
'documentation^_'
'Agent^_'
'components_'
'the\u^_'
'lock^_'
'Unable^_'
'Cloud^_'
'Schema^_'
'cal^_'
'layer\u^_'
'storage\u^_'
'CH^_'
'non'
'cy^_'
'62_'
'horizontal^_'
'begin^_'
';)"_'
'Parser^_'
'license^_'
'Plugin_'
'answer_'
'reset\u^_'
'hex_'
'dummy^_'
'Add_'
'ka'
'sets^_'
'fo_'
'ap^_'
'Per^_'
'published^_'
'provide^_'
'Spectrum^_'
'scipy_'
'81_'
'chunk_'
'listdir_'
'doesn^_'
'step\u^_'
'ci^_'
'delay_'
'extra_'
'tensor_'
'apps_'
'Punctuation_'
'revision_'
'UI^_'
'pair_'
'topic_'
'progress_'
'branch^_'
'Cell^_'
'Block_'
'secret_'
'2017^_'
'stored^_'
'88_'
'price_'
'machine^_'
'lst_'
'keep^_'
'figure_'
'Parameter_'
'disable^_'
'trans_'
'fh_'
'Output_'
'INFO_'
'needed^_'
'readonly^_'
'0x9'
'gui_'
'hi^_'
'74_'
'']^_'
'We^_'
'coord_'
','
'dt^_'
'min'
'Mock^_'
'Cluster^_'
'eq^_'
'sqlalchemy_'
'Tests_'
'Attributes^_'
'utils^_'
'children^_'
'negative^_'
'instances_'
'Mozilla^_'
'Graph^_'
'Required^_'
'change_'
'last_'
'∅∅'_'
'(?^_'
'white^_'
'ws'
'net'
'plugins^_'
'sa^_'
'Dialog^_'
'any_'
'ble_'
'Matrix^_'
'ur'
'BASE\u^_'
'p2_'
'Layout^_'
'xx^_'
'ing'
'previous^_'
'sure^_'
'Grid^_'
'Pos_'
'120_'
'Loss^_'
'Task_'
'bucket_'
'ring^_'
'Optional_'
'MIB^_'
'right\u^_'
'plain^_'
'base'
'slice^_'
'oper^_'
'ET_'
'book^_'
'{{^_'
'correct^_'
'RO'
'73_'
'Generic^_'
'Wrapper^_'
'below^_'
'nested\u^_'
'kernel^_'
'92_'
'move\u^_'
'hosts_'
'calls^_'
'Memory^_'
'df'
'url'
'%.^_'
'system\u^_'
'Topic^_'
'bit'
'hostname^_'
'cpp^_'
'urls^_'
'sql^_'
'nd_'
'\u"_'
'lp'
'distributed^_'
'Types^_'
'NS_'
'87_'
'pair^_'
'light^_'
'exp^_'
'unique\u^_'
'above^_'
'Template_'
'err^_'
'Member_'
'reset_'
'env\u^_'
'x2_'
'thumbnail_'
'slug^_'
'Files^_'
'O_'
'memory\u^_'
'price^_'
'distribution^_'
'500^_'
'((^_'
'this_'
'mt'
'dataset\u^_'
'Could^_'
'yaml^_'
'profile\u^_'
'pb2_'
'widgets_'
'ns3^_'
'CD'
'exp\u^_'
'y1_'
'033^_'
'bound^_'
'expect\u^_'
'operations_'
'user'
'mod'
'hidden^_'
'ENERGY^_'
'END^_'
'Multicast^_'
'ja^_'
'AWS^_'
'val\u^_'
'Full^_'
'reason^_'
'saved^_'
'ptr^_'
'Operation^_'
'2005^_'
'alias^_'
'Popen_'
'ze^_'
'defaults^_'
'makedirs_'
':/^_'
'sender_'
'win_'
'ty_'
'zone_'
'All_'
'DEFAULT^_'
'Google^_'
'bot^_'
'rm^_'
'unit\u^_'
'STATUS\u^_'
'engine^_'
'int'
'EXT^_'
'chdir_'
'continue^_'
'switch^_'
'too^_'
'rb'
'Common^_'
'condition_'
'runner_'
'serialized\u^_'
'useful^_'
'scores_'
'button\u^_'
'gray^_'
''∅∅∅∅∅∅∅∅∅∅∅∅∅∅^_'
'Role^_'
'Deleter\u\u^_'
'ut^_'
'Expected^_'
'Items^_'
'clean^_'
'ile_'
'rstrip_'
'Convert^_'
'98_'
'168^_'
'ordering^_'
'Maximum^_'
'UTF^_'
'seq\u^_'
'web_'
'xsd^_'
'PS'
'bits_'
'tear^_'
'installed^_'
'715'
'ation_'
'97_'
'"∅∅∅∅"_'
'reply_'
'fc'
'Count\u\u^_'
'sw^_'
'grid\u^_'
'training^_'
'multi^_'
'ver^_'
'rule\u^_'
'G\u^_'
'dest^_'
'MP^_'
'please^_'
'deepcopy_'
'relative^_'
'726'
'browser_'
'en_'
'180_'
'ver_'
'all'
'email\u^_'
'us_'
'native^_'
'bind_'
'public\u^_'
'Package^_'
'Font_'
'compat\u^_'
'ist_'
'timer_'
'86_'
'binary_'
'pk^_'
'insert\u^_'
'"-"_'
'diff^_'
'0x3'
'track_'
'ax'
'Stats^_'
'apply\u^_'
'pipe^_'
'LD'
'logging^_'
'Environment^_'
'skip\u^_'
'im^_'
'ol^_'
'83_'
'#'
'filters^_'
'Limit^_'
''∅∅∅∅∅∅'_'
'bad\u^_'
'commit^_'
'branch_'
'VM^_'
'lt\u\u^_'
'representation^_'
'least^_'
'716'
'Called^_'
'AC'
'obj'
'gt\u\u\u^_'
'lat_'
'Login^_'
'--------^_'
'722'
'month^_'
'reg_'
'python\u^_'
'FOR^_'
'were^_'
'ssl^_'
'O\u^_'
'ting^_'
'exceptions^_'
'setting_'
'req\u^_'
'cm_'
'697'
'signature_'
'indices^_'
'ws_'
'Handle^_'
'706'
'Edit_'
'itertools_'
'force\u^_'
'executed^_'
'support_'
'Q'
'window\u^_'
'4\u^_'
'872'
'∅∅∅∅∅∅∅∅∅∅∅∅^_'
'registry_'
'ru^_'
'93_'
'Core^_'
'%'
'xpath_'
'family^_'
'Address_'
'91_'
'8'
'DELETE^_'
'tree\u^_'
'creation^_'
'tu'
';'
'okay^_'
'mozilla^_'
'tx^_'
'queue\u^_'
'cb'
'Layout\u^_'
'backup^_'
'checkequal_'
'should\u^_'
'chr_'
'EC'
'topic^_'
'jobs_'
'859'
'*\\^_'
''</^_'
'origin_'
'ja'
'playlist^_'
'high^_'
'ki'
'handlers_'
'MAX^_'
'Internal^_'
'PC^_'
'U_'
'FILE\u^_'
'DATA\u^_'
'ally^_'
'ke'
'728'
'nce^_'
'draw\u^_'
'Media^_'
'simple\u^_'
'Long^_'
'Install^_'
'fixed^_'
'actual\u^_'
'Yi^_'
'py\u^_'
'Num_'
'means^_'
''(?^_'
'Sets^_'
'Equal^_'
'ostream^_'
'712'
'arc^_'
'Driver^_'
'DESCRIPTOR_'
'SD'
'let^_'
'Timeout^_'
'2011^_'
'condition^_'
'yaml_'
'connection\u^_'
'fields\u^_'
'period_'
'cur^_'
'Generate^_'
'sqlite^_'
'ff_'
'0x4'
'policy\u^_'
'Source_'
'examples^_'
'DA'
'parameter_'
'Title_'
''|'_'
'dest\u^_'
'THE^_'
'speed_'
'etree_'
'requires^_'
'pm'
'703'
'FE'
'Sa'
'Query_'
'&#^_'
'Bar_'
'echo^_'
'expr^_'
'723'
'pkg_'
'lambda^_'
'829'
'exec^_'
'724'
'INTEGER^_'
'ld'
'0x18_'
'Dir^_'
'ted^_'
'metric^_'
'shift^_'
'entity\u^_'
'Normal^_'
'718'
'SA'
'hd'
'ers_'
'89_'
'side^_'
'fetch\u^_'
'Allows^_'
'period^_'
'mesh_'
'Formatter_'
'X'
'These^_'
'setuptools_'
'INSERT^_'
'time'
'App_'
'port'
'0xf'
'take^_'
'ylabel_'
'theta_'
'during^_'
'revision^_'
'ping^_'
'he^_'
'bar'
'fit^_'
'rt_'
''%(^_'
'709'
'698'
'831'
'those^_'
'game\u^_'
'merge^_'
'Opt_'
'Flag^_'
'ge_'
'729'
'688'
'Position_'
'priority^_'
'sign^_'
'tv'
'ce'
'719'
'route^_'
'ivar^_'
'files\u^_'
'MC'
'dic_'
'assigned^_'
'FA'
'question^_'
'pool\u^_'
'arch^_'
'679'
'nb^_'
'711'
'847'
'\\\\'
'ness^_'
'837'
'protection^_'
'"''
'algorithm^_'
'677'
'depth^_'
'865'
'Station^_'
'ga^_'
'Properties^_'
'endpoint^_'
'ports_'
'tenant^_'
'conf\u^_'
'EC^_'
'839'
'$'
'694'
'ouch^_'
''∅∅∅∅∅'_'
'Url^_'
'\\"'
'bs^_'
'853'
'bygroups_'
'old_'
'Bo'
'compare^_'
'types\u^_'
'Linux^_'
'rank_'
'API\u^_'
'ssh^_'
'].^_'
'691'
'704'
'translation^_'
'cn^_'
'Length_'
'analysis^_'
'phone^_'
'868'
'fetch^_'
'locale_'
'Short^_'
'black^_'
'2010^_'
'Entity^_'
'∅'_'
'717'
'best^_'
'0x20_'
'1000^_'
'Push^_'
'[%^_'
'Utils_'
'cnt_'
'the'
'API_'
'begin_'
'Root^_'
'proto_'
'USER\u^_'
'bpy_'
'867'
'Single^_'
'('
'path'
'ED\u^_'
'generic^_'
'coordinates^_'
'failure^_'
'In'
'needs^_'
'progress^_'
'94_'
'841'
'689'
'rest\u^_'
'tk_'
'Syntax^_'
'scripts^_'
'exit\u^_'
'point\u^_'
'si^_'
'Msg_'
'hook_'
'hex^_'
'ii_'
'683'
'proto^_'
'credentials_'
'mgmt^_'
'512_'
'stdin_'
'called_'
'padding_'
'849'
'856'
'ze_'
'Int_'
'until^_'
'Binary^_'
'Lock^_'
'713'
'cc'
'Controller_'
'693'
'ce_'
'xa'
'`'
'cost_'
'latest^_'
'eo'
'ko'
'direction^_'
'md_'
'factor^_'
'836'
'ht'
'685'
''@^_'
'682'
'store\u^_'
'DB'
'['
'out'
'model'
'680'
'mark^_'
'851'
'Icon_'
'edit\u^_'
'cpu^_'
'000000^_'
'681'
'701'
'832'
'strings_'
'product\u^_'
'ns3\u^_'
'mp_'
'ae'
'845'
'vec_'
'selection^_'
'paths^_'
'pre\u^_'
'dot\u^_'
'allows^_'
'GPIO_'
'tcp^_'
'Rule_'
'Var_'
'U'
'0.01_'
'ber'
'list'
'minimum^_'
'705'
'pe^_'
'721'
'hash\u^_'
'trace_'
'!=^_'
'formats^_'
'707'
'metric_'
'Float_'
'trace^_'
'Stash_'
'cc_'
'upper^_'
'col'
'notes^_'
'marker_'
'Header_'
'ext\u^_'
'727'
'export\u^_'
'raises^_'
'CREATE^_'
'pg'
'/'
'Domain^_'
'Site^_'
'err\u^_'
'threshold^_'
'LO'
'sf'
'\u\u'
'cm^_'
'ones_'
'general^_'
'ng\u^_'
'Examples^_'
'menu\u^_'
'timezone_'
'RT'
'Some^_'
'.'''_'
'Font^_'
'Ex^_'
'dictionary_'
'var'
'lookup_'
'sh_'
'Enabled_'
'copyright^_'
'cleaned\u^_'
'll_'
'lo^_'
'Method_'
'cmds_'
'Connect^_'
'force_'
'java^_'
'days^_'
'run'
'56'
'short\u^_'
'orig\u^_'
'Location_'
'snapshot_'
'host'
'merge\u^_'
'quote_'
'Energy^_'
'dc'
'metadata\u^_'
'0x0'
'710'
'COLOR^_'
'r1_'
're\u^_'
'ive^_'
'?'
'clear\u^_'
'environment_'
'Bank^_'
'including^_'
'dims_'
'Val_'
'871'
'along^_'
'ct^_'
'Li^_'
'own^_'
'720'
'Player^_'
'pack\u^_'
'bucket^_'
'55'
'down_'
'Row_'
'activity^_'
'devices_'
'soup_'
'vt'
'||^_'
'lm'
'ck'
'Files_'
'dst^_'
'variable\u^_'
'pyplot_'
'ha^_'
'cat_'
'retval_'
'xlabel_'
'from'
'chars_'
'cf'
'				^_'
'838'
'Rx^_'
'\u'
'855'
'ratio_'
'scheme^_'
'$"_'
'r2_'
'ft^_'
'delta^_'
'tic^_'
'numeric^_'
'Does^_'
'identity^_'
'()'
'curr\u^_'
'body\u^_'
'browser^_'
'speed^_'
'locals_'
'869'
'873'
'])'
'858'
'{%^_'
'pages^_'
'gnu^_'
'Rect_'
'xt'
'bo'
'Parent^_'
'"['
'2008^_'
'pid^_'
'Spec_'
'CD^_'
'ys'
'prob_'
'origin^_'
'image'
'low_'
'exe^_'
'aliases_'
'830'
'long_'
'para^_'
'866'
'serializer_'
'0x5'
'CFG\u^_'
'Msg^_'
'/<^_'
'extract^_'
'Format_'
'fp'
'DATE\u^_'
'                _'
'Space^_'
'disk\u^_'
'8615'
'series_'
'Pin_'
'sql\u^_'
'archive^_'
've_'
'725'
'base64_'
'AP'
'702'
'ml'
'828'
'globals_'
'escape_'
'}{^_'
'-(^_'
'rst^_'
'Args_'
'692'
'be'
'730'
'validation^_'
'readlines_'
'10000_'
'Broker^_'
'override^_'
'ata_'
'Callback_'
'842'
'security\u^_'
'SO'
'urn^_'
'map'
'714'
'nd'
'sl'
'locale^_'
'ios^_'
'sha^_'
'lb^_'
'ment_'
'type'
'ION^_'
'Y'
'slice_'
'dump\u^_'
'once^_'
'ne_'
'687'
'bin\u^_'
'dump^_'
'back_'
'next'
'today_'
'our^_'
'708'
'*.^_'
'nb\u^_'
'Wait^_'
'STRING_'
'Provider_'
'pkg\u^_'
'on'
'TE^_'
'up\u^_'
'Option_'
'node'
'swig\u^_'
'site\u^_'
'Sync^_'
'nx_'
'ps'
'Enabled^_'
'scene_'
'card^_'
'transaction_'
'852'
'he'
'690'
'Store^_'
'+)'_'
'IF^_'
'DC^_'
'add'
'848'
'put\u^_'
'safe\u^_'
'678'
'834'
'Reserved^_'
'bins_'
'Ji^_'
'gs'
'403_'
'ks'
'geometry^_'
'ary^_'
'844'
'close\u^_'
'tt^_'
'Ref_'
'missing\u^_'
'<'
'5\u^_'
'videos^_'
'ratio^_'
'Builder_'
'150_'
'ant^_'
'/*^_'
'MD^_'
'Zero^_'
'BY^_'
'Any^_'
'Ni'
'pprint_'
'695'
'dist^_'
'something^_'
'SSL^_'
'set'
'inputs^_'
'processing^_'
'bin_'
'codes_'
'le\u^_'
'cwd_'
'steps^_'
'prop'
'684'
'angle^_'
'VERSION^_'
'0x7'
'well^_'
'Ra'
'pl^_'
'validate^_'
'123_'
'sources^_'
'BE^_'
'tmpdir_'
'arch_'
'agent\u^_'
'TEXT^_'
'doc'
'Constant_'
'lc'
'operation_'
'nt'
'{'^_'
'large^_'
'.*^_'
'dm'
'iter\u^_'
'parameter\u^_'
'md'
'bind^_'
'vs_'
'843'
'sc_'
'Go'
'WSGI^_'
'Gets^_'
'lookup^_'
'Na'
'together^_'
'requested^_'
'ut'
'every^_'
'frequency^_'
'()"_'
'drop\u^_'
't2_'
'":"_'
'Ro'
'AI'
''∅∅^_'
'dde^_'
'hashlib_'
'title\u^_'
'charset^_'
'Move^_'
'AD'
'LE^_'
'Graph_'
'nova^_'
'Variable\u^_'
'TEST^_'
'jobs^_'
'est_'
'Asia^_'
'of_'
'du^_'
'cn'
'846'
'ding^_'
'INT^_'
'name'
'ur_'
'ws^_'
'dy_'
'me'
'<=^_'
'controller^_'
'VI'
'"\u"_'
'Pv^_'
'of'
'Valid^_'
'debug\u^_'
'ds'
'TIME\u^_'
'ret^_'
'AT^_'
'USER^_'
'870'
'Activity^_'
'SS^_'
'people^_'
'Tab^_'
'Library^_'
'835'
'Constraint_'
'Var^_'
'abc_'
''['
'eb'
'bra'
'args\u^_'
'flow\u^_'
'wo'
'Exchange^_'
'padding^_'
'members_'
'699'
'std_'
'repository_'
'starting^_'
'Warning^_'
'framework_'
'ure^_'
'Almost^_'
'Interval^_'
'urlopen_'
'Low^_'
'digits_'
'translation_'
'Lo'
'emit_'
'WA'
'address\u^_'
'ay^_'
'MA'
'ER\u^_'
'ptr_'
'idx^_'
'Range_'
'ef'
'it'
'clean_'
'try\u^_'
'fs'
'dst\u^_'
'representing^_'
'pairs_'
'om^_'
'ln_'
'tt'
'ons^_'
'Li'
'wrong^_'
'person_'
'date'
'members^_'
'B\u^_'
'flow_'
'csv\u^_'
'prop^_'
''('
'ur^_'
'TS'
'Users^_'
'delay^_'
'ct'
'cl_'
'ng'
'defaultdict_'
'iso'
'apache^_'
'diff\u^_'
'ln'
'sec_'
'stat^_'
'linear^_'
'components^_'
'Reader_'
'constant_'
'Document_'
'998'
'im'
'true_'
'Lenum_'
'kernel_'
'tx_'
'sun'
'Implementation^_'
'Null^_'
'check'
'Json^_'
'dl^_'
'ver'
'matches^_'
'grey^_'
'+--------------^_'
'za'
'Yu^_'
'verify^_'
'101^_'
'NN^_'
'CO'
'stdout^_'
'detail_'
''..'_'
'range\u^_'
'Bus^_'
'dev\u^_'
'positive^_'
'src'
'Width^_'
'allowed\u^_'
'Sub'
'ut_'
'0xb'
'alt'
'Param^_'
'loaded^_'
'Param_'
'rev_'
'reg\u^_'
'2000^_'
'URI^_'
'if'
'sim^_'
'max'
'ile^_'
'city^_'
'fit\u^_'
'connect\u^_'
'1234^_'
'off_'
'constant^_'
'ia'
'str'
'Arguments^_'
'transport_'
'accept^_'
'ath_'
'selected_'
'bounds_'
'bc'
'av'
'Area^_'
'hosts^_'
'actual^_'
'versions^_'
'started^_'
'Na^_'
'Style_'
'?\\^_'
'inspect_'
'running_'
'CF'
'ignored^_'
'ode_'
'696'
'quote^_'
'partial_'
'ti^_'
'categories_'
'inline^_'
'logs^_'
'world_'
'directly^_'
'pred_'
'Ds^_'
'phase^_'
'lf'
'gb'
'HD'
'pp_'
'y2_'
'edge\u^_'
'Fa'
'des^_'
'Interface_'
'loss^_'
'up'
'role\u^_'
'!'
'threads_'
'Foundation^_'
'Changed_'
'bin'
'UT^_'
'MIT^_'
'46'
'Values_'
'problem^_'
'tables^_'
'sim'
'pygments^_'
'))'
',%^_'
'assignment^_'
'57'
'open'
'future^_'
'errno_'
'PS^_'
'(?:^_'
'cr^_'
'ld^_'
'eval^_'
'sb'
'ist^_'
'sec^_'
'pt'
'board^_'
'control\u^_'
'box\u^_'
'205_'
'box'
'char\u^_'
'stack\u^_'
'expression_'
'known^_'
'scale\u^_'
'PORT_'
'MP'
'700'
'radius^_'
'ln^_'
'eval\u^_'
'Program^_'
'LL'
'tensor^_'
'fn^_'
'verify_'
'HO'
'ensure\u^_'
'end'
'bits^_'
'#'_'
'.5_'
'router_'
'ND'
'Fa^_'
'Development^_'
'edit_'
'clause^_'
'PY'
')*^_'
'vm'
'Release^_'
'863'
'Debug^_'
'I\u^_'
'average^_'
'sse'
'keep\u^_'
'---^_'
'dom^_'
'editor_'
'ess^_'
'Small^_'
'source'
'one'
'238_'
'creating^_'
'panel_'
'OT'
'theme_'
'Letter^_'
'SC'
'SA^_'
'2007^_'
''#'_'
'ai^_'
'doc\u\u_'
'``'
'Obj^_'
'af'
'="%^_'
'*'
'864'
'Gi'
'implement^_'
'Out_'
'VALUE^_'
'54'
'hs'
'862'
'sig_'
''$\\\\^_'
'after_'
'build'
'ec_'
'3.0_'
'line'
'mkdir_'
'xs_'
'pad_'
'ks^_'
'validators_'
'statement_'
'Order_'
'worker^_'
'vs'
'EL'
'comments_'
'Db^_'
'Tra'
'sys'
'sequences^_'
'827'
'Xi^_'
'cy'
'again^_'
'img'
'Schema_'
'Decimal_'
'High^_'
'ret\u^_'
'frames_'
'"∅∅∅"_'
'dt'
'='
'validation_'
'Man'
'shell^_'
'sr'
'CONFIG_'
'bp'
'urlpatterns_'
'enable\u^_'
'current'
'cpu\u^_'
'c1_'
'side_'
'asyncio_'
'xb'
'SP'
'XML_'
'numbers_'
'tr'
'not'
'schema\u^_'
'Controller^_'
'ta_'
'payload^_'
'program_'
'201_'
'top'
'append\u^_'
'svg^_'
'reference_'
','_'
'mu'
'playlist\u^_'
'nodetype^_'
'CI'
'convert_'
'home_'
'live^_'
'∅n'
'DO'
'license_'
'ext'
'channels^_'
'os'
'mu_'
'vs^_'
'priority_'
'Export^_'
'ap_'
'0xa'
'provides^_'
'va^_'
'oid^_'
'answer^_'
'validator_'
'Methods^_'
'kernel\u^_'
'NT'
'Scale^_'
'I'
'at'
'Named^_'
'10.'
'Contact^_'
'SM'
'dom_'
'MS^_'
'reg^_'
'mu^_'
'Also^_'
''<'_'
'HI'
'ali'
'Score^_'
'print'
'ate_'
'wrap_'
'MI'
'PO'
'840'
'CODE_'
'err'
'feed\u^_'
'share\u^_'
'visible^_'
'an_'
'collection\u^_'
'ert'
'arrays^_'
'documents_'
'"%(^_'
'CS^_'
'existing\u^_'
'tb_'
'router^_'
'857'
'"'"_'
'mono^_'
'Multiple^_'
'scheme_'
'ub'
'written^_'
'Transfer^_'
'sign_'
'gd^_'
'vc'
'Identifier^_'
'an'
'Cache_'
'son^_'
'formatter_'
'dict'
'beta_'
'Matrix_'
'dat^_'
'>"""_'
'serializers_'
'patch\u^_'
'Loader_'
'processors^_'
'Link_'
'mean\u^_'
'254_'
'square^_'
'Each^_'
'required\u^_'
'scan^_'
'Used^_'
'fill\u^_'
'blog^_'
'old'
'energy^_'
'Lookup^_'
'Ack^_'
'article^_'
'INTO^_'
'tion\u^_'
'assert\u_'
'destination_'
'roles_'
'K'
'>[^_'
'cpu_'
'block'
'big^_'
'LICENSE^_'
'created\u^_'
'et'
'}}^_'
'pg^_'
'opt\u^_'
'tenant\u^_'
'dr'
'IF'
'RD'
'ING\u^_'
'ff'
'NOT\u^_'
'ent_'
'rel'
'Price^_'
'cf_'
'quality^_'
'reverse^_'
'FI'
'ine^_'
'ga'
'\\''
'gb^_'
'}}'_'
'ip'
'854'
'Stub^_'
'Ko'
'lat'
'input'
'0x8'
'identity_'
'Inter'
'tool_'
'.'
'lon_'
'oe'
'&&^_'
'101_'
'Authentication^_'
'STRING^_'
'DF'
'rg'
'300^_'
'working^_'
'+)'
'le'
'ret'
'ode^_'
'il'
'watch^_'
'SI'
'TT'
'transform^_'
'Signal_'
'tor^_'
'je'
'Vector_'
'dir'
'nc^_'
'calc\u^_'
'TEST_'
'submit^_'
'HA'
'Step^_'
'Init^_'
'exclude_'
'ic'
'O'
'prepare\u^_'
'DA^_'
'\^_'
''∅∅∅^_'
'Part^_'
'Start_'
'ix_'
'Ne'
'worker_'
'du'
'pairs^_'
'able\u^_'
'Propagation^_'
'CT'
'plot'
'02_'
'PDF^_'
'FS^_'
'media_'
'ori'
'lt'
'za^_'
'tri'
'symmetrical^_'
'render^_'
'qt'
'info'
'cost^_'
'ge'
'yo'
'multi\u^_'
'*/^_'
'x0_'
'Results^_'
'calling^_'
'ET'
'google_'
'pv'
'od'
'due^_'
'ftype_'
'ial^_'
'Namespace_'
'IE\u^_'
'ju'
'ev_'
'043^_'
'lazy_'
'pl_'
'big'
'bs'
'shift_'
'ors^_'
'Bar'
'SR'
'ms'
'Reset^_'
'Un'
'cr'
'SP^_'
'btn^_'
'Initialize^_'
'Tlv^_'
'Argument_'
'xs'
'js'
'manual^_'
'STATE\u^_'
'app'
'xt_'
'callable^_'
'iter'
'wrapper^_'
'833'
'positions_'
'weights^_'
'included^_'
'exclude\u^_'
'Uan^_'
'en'
'LOG\u^_'
'Pbb^_'
'Home^_'
'TO\u^_'
'cast_'
'Row^_'
'ions_'
'TO'
'sti'
'Warning_'
'Cancel^_'
'DEBUG^_'
'yet^_'
'IP'
'successfully^_'
'GB^_'
'lib'
'Top^_'
'ny^_'
'lexers^_'
'Accept^_'
'keywords^_'
'sigma_'
'choices^_'
'previous\u^_'
'changes_'
'KE'
'Creates^_'
'ze'
'proxy\u^_'
'oo'
'certificate^_'
'blob^_'
'Parameters_'
'pyxb_'
'ie'
'servers^_'
'only\u^_'
'enum^_'
'ans_'
'notification^_'
''"'
'MT^_'
'permissions_'
'(''
'IN'
'Routing^_'
'sync\u^_'
'val'
'Unexpected^_'
'Nix^_'
'Directory_'
'LIST_'
'safe_'
'getcwd_'
'110_'
'iter^_'
'fabric\u^_'
'So'
'station^_'
'framework^_'
'mem_'
'HTTP\u^_'
'ype^_'
'mm'
'VALUES^_'
'EM'
'[\\^_'
'CC'
'serial^_'
'cisco^_'
'structure_'
'compat_'
'F'
'Inc^_'
'distutils_'
'sorted\u^_'
'150'
'PC'
'pn'
'Should^_'
'*=_'
'Doc^_'
'basestring_'
'ty'
'USE\u^_'
'transaction^_'
'0xc_'
'pf'
'error'
'decode\u^_'
'Clear^_'
'tmp'
'"]'
'AR^_'
'GA'
'versions_'
'1.5_'
'by'
'conf'
'111111111111111^_'
'SE^_'
'Insert^_'
'made^_'
'functools_'
'ee'
'+\\^_'
'clicked_'
'fail\u^_'
'EE'
'nova_'
'raise\u^_'
'}}'
']+'_'
'comp_'
'authentication^_'
'Gecko^_'
'./^_'
'ER'
'ts'
'Ipv4^_'
'SS'
'';'_'
'sim_'
'book_'
'0xe'
'{}'
'tb'
'Int32_'
'Values^_'
'ous^_'
'Assertion^_'
'nsi'
'memory_'
'Generator_'
'hour_'
'lib\u^_'
'font\u^_'
'parsed_'
'0xc'
'Setting^_'
'AB^_'
'().^_'
'00000^_'
'###############^_'
'devices^_'
'comp^_'
'req^_'
'LA'
'plus^_'
'gt'
'loc^_'
'make'
'Disk^_'
'FF'
'NA'
'comment\u^_'
'  _'
'feed_'
'PREFIX_'
'edu^_'
'CE^_'
'private\u^_'
'dot'
'AP^_'
'def\u^_'
'grad_'
'initial_'
'ri^_'
'Sequence_'
'0x10'
'Profile_'
'=\\^_'
'fo^_'
'nested^_'
'cases^_'
'DI'
'xd'
'200'
'ei'
'wx^_'
'850'
'ry'
'Port_'
'pandas_'
'NS'
'ity_'
'automatically^_'
'direct^_'
'uk^_'
'buf^_'
'cm'
'Req^_'
'ad'
'Identifier_'
'WITHOUT^_'
'results\u^_'
'oc^_'
'("'
'decimal^_'
'DD'
'red_'
'cho'
'num'
'compile^_'
'drop^_'
'Names^_'
'strong^_'
'good^_'
'Batch^_'
'nums_'
'fn'
'5'
'CP'
'issue^_'
'Download^_'
'DS'
'World^_'
'tp'
'fb'
'proc^_'
'ly_'
'rc'
'Pre^_'
'entities_'
'Extension^_'
'Height^_'
'descr_'
'retry^_'
'chain^_'
'second_'
'post'
'found\u^_'
'track\u^_'
'seed^_'
'zo'
'.9'
'Record_'
'Helper_'
'Compute^_'
'Ca'
'mar'
'reg'
'latin^_'
'gateway^_'
'library_'
'PA^_'
'ind^_'
'Cu'
'separated^_'
'W'
'∅n^_'
'still^_'
'dim^_'
'rank^_'
'nl^_'
'temp'
'r∅'
'atom_'
'item'
'NO\u^_'
'686'
'6'
'Changed^_'
'lon^_'
'Sensor^_'
'manage^_'
'({^_'
'fatal_'
'Step_'
'Stream_'
'Draw^_'
'org_'
'api'
'AD^_'
'IR'
'Mar'
'del'
'sid_'
'play'
'DD^_'
'catalog^_'
'click^_'
'rr^_'
'0.3_'
'Items_'
'tid^_'
'Hz^_'
'PP'
'Collection^_'
'management_'
'credentials^_'
'sum\u^_'
'third^_'
'ENSMUSG^_'
'lo'
'NI'
'Pa'
'arg'
'apply_'
'NO'
'thread\u^_'
'AF^_'
'TYPES_'
'tree'
'epoch_'
'writing^_'
'ys_'
'ex'
'Len^_'
'Provider^_'
'Sim^_'
'DT'
'}$'_'
'Container_'
'rest_'
'mat'
'targets^_'
'UR^_'
'notes_'
'WITH^_'
'sel_'
'"∅∅∅∅∅"_'
'inp_'
'Broadcast^_'
'mouse^_'
'dimension^_'
'nargs_'
'absolute^_'
'111_'
'676'
'cv_'
'escape^_'
'ly'
'Machine^_'
'indent^_'
'796'
'prop\u^_'
'eu'
'seek_'
'ite^_'
'Seq^_'
'closed^_'
'V\u^_'
'Your^_'
'sed^_'
'ep^_'
'connected^_'
'gene^_'
'0x1e'
'ION\u^_'
'patch^_'
'pp^_'
'cast^_'
'db'
'key'
'Plot^_'
'load'
'legend_'
'demo^_'
'parsed^_'
'224'
'regex^_'
'type\u_'
'gc'
'300'
'Setup^_'
'0xd'
'mf'
'inter'
'ee_'
'before_'
'ssi'
'Selection^_'
'yt'
'face^_'
'infile_'
'tex^_'
'hm'
'div_'
'813'
'NV^_'
'vol_'
''?'_'
'call\u\u_'
'Must^_'
'har'
'vertex^_'
'exec\u^_'
'AE^_'
'auto'
'long'
'8618'
'dynamic^_'
'mb^_'
'240_'
'DC'
'ine'
'IS'
'responses_'
'Help^_'
'episode^_'
'my_'
'*"_'
'selector_'
'inside^_'
'769'
'categories^_'
'part\u^_'
'TP'
'001'
'after\u^_'
'abstractmethod_'
'Pi^_'
'AA'
'0x6'
'7'
'D'
'lu'
'redirect^_'
'Dummy^_'
'mr'
'task'
'3600_'
'sci'
'ku'
'anti'
'ang^_'
'Child^_'
'Qry^_'
'appropriate^_'
'WIDTH^_'
'bs_'
'pass\u^_'
'Private^_'
'layers^_'
'Keyboard^_'
'bg^_'
'subplot_'
'va'
'sta'
'669'
'atoms_'
'Instrument^_'
'Available^_'
'ek'
'Upload^_'
'cells_'
':`~^_'
'settings\u^_'
'ME^_'
'860'
'∅∅∅'_'
'config'
'fix^_'
'health^_'
'sil'
'md5_'
'219'
'room^_'
'226'
'left'
'NC'
'Card^_'
'bus^_'
'una'
'spam^_'
'delta\u^_'
'rs'
'ERROR\u^_'
'ma_'
'configure_'
'LS'
'forward^_'
'102_'
'**'
'impl_'
'definition_'
'','^_'
'normal_'
'Mobility^_'
'pin'
'tc'
'Decimal^_'
'Flag_'
'Audio^_'
'location\u^_'
'int32_'
'11'
'ang'
'VE^_'
'Support^_'
'trigger^_'
'mi^_'
'ion'
'ind'
'fo'
'ser'
'counter^_'
'hash'
'FC'
'Proxy_'
'handlers^_'
'nv'
'Re'
'Construction^_'
'bro'
'am'
'MA^_'
'filter'
'AN^_'
'section\u^_'
'sites^_'
'question_'
']:^_'
'tester_'
'>%^_'
'rf'
'Pe'
'CA'
'"&^_'
'd1_'
'2000_'
'Back'
'English^_'
'mgr_'
'lookup\u^_'
'hy'
'Priority^_'
'ssh\u^_'
'itself^_'
'her'
'Running^_'
'980'
'level\u^_'
'll'
'fid_'
'segment^_'
'05_'
'derefcnt_'
'fontsize_'
'pkg^_'
'Using^_'
'licenses^_'
'mol'
'pys'
'Bool^_'
'ger^_'
'hi'
'br'
'fe'
'GMT^_'
'around^_'
'Pos^_'
'ru'
'subnet^_'
'Content_'
'pa^_'
'async\u^_'
'ul'
'call'
'..._'
'hyper'
'au^_'
'HOST^_'
'us'
'cloud_'
'prev_'
'Trade^_'
'ani'
'td'
'222'
'Process_'
'ES_'
'Panel_'
'0x22'
'che'
'002'
'sig'
'bor'
'member\u^_'
'\u\uCARET\u\u\u'
'sorted^_'
'gp'
'organization^_'
'dns^_'
'LI'
'internal\u^_'
'Team^_'
'2009^_'
'Tuple^_'
''<'
'ns'
'implied^_'
'rd_'
'tx'
'Di'
'nthe^_'
'Ru'
'ments^_'
'represents^_'
'898'
'win'
'SUCCEED_'
'000_'
'MT'
'docker^_'
'dd'
'ET^_'
'∅∅∅'
'817'
'Console^_'
'calendar^_'
'mk'
'lineno_'
'visible_'
'servers_'
'size'
'Prop\u^_'
'Java^_'
'event'
'}'
'\\'
'install_'
'SIG'
'dy'
'Vertex^_'
'Is'
'git\u^_'
'pb'
'replace\u^_'
'OP^_'
'arr^_'
'link'
'external\u^_'
'rd'
'reference\u^_'
'zu'
'La^_'
'Regex^_'
'})'
'iss'
'abs^_'
'80'
'El'
'Serial^_'
'takes^_'
'parser\u^_'
'backends^_'
'139_'
'super'
'Investor^_'
'Minimum^_'
'inner^_'
'vartype^_'
'tf'
'nti'
'dp'
'ole'
'asarray_'
'010^_'
'hp'
'0.05_'
'pre'
'er'
'SIZE^_'
'core\u^_'
'%}^_'
'require^_'
'004'
'Te'
'Fo'
'lr'
''/'
'0x21'
'avg^_'
'serial_'
'threads^_'
'database\u^_'
'Car'
'act_'
':'
'cli\u^_'
'write'
'Project_'
'Ri'
'applications^_'
'wd'
'word'
'slot^_'
'ak^_'
'descriptor^_'
'con^_'
'c2_'
'basic\u^_'
'MD'
'sk'
'region\u^_'
'Fields_'
'Zone^_'
'kb'
'in'
'dialog^_'
'mini'
'Region^_'
'quality_'
'mysql^_'
'\\-^_'
'air'
'Spec^_'
'cleanup_'
'Notification^_'
'did^_'
'Comment^_'
'0.01'
'Struct^_'
'bucket\u^_'
'ring_'
'IT^_'
'string'
''+^_'
'cp_'
'defines^_'
'values\u^_'
'bt_'
'Protocol_'
'push_'
'retrieve^_'
'Word^_'
'route\u^_'
'disk_'
'CE'
'Verify^_'
'dl'
'tile_'
'UUID^_'
'pipeline_'
'ALL_'
'03_'
'LU'
'caret_'
'team_'
'rel\u^_'
'Check_'
'provider\u^_'
'tone^_'
'SAPT^_'
'bold^_'
'Notes^_'
'property\u^_'
'ic_'
'listener_'
'Device_'
'ini^_'
'sm^_'
'match'
'Ac'
'tra'
'chunk\u^_'
'11.'
'Given^_'
'ax^_'
'do_'
's3_'
'CONFIG\u^_'
'codecs_'
'Fu^_'
'USE^_'
'CM'
'fac_'
'typ_'
'dn_'
'SERVER^_'
'Begin^_'
'105_'
'cond_'
'')'_'
'splitext_'
'position\u^_'
'hu'
'wa'
'Red'
'ple'
'IC'
'pd'
'shared\u^_'
'sch'
'ten'
'f1_'
''),^_'
'sessions^_'
'Za'
'tab\u^_'
'interface\u^_'
'Pi'
'choice^_'
'cookie_'
'MAP_'
'deb'
'pop'
'Serialized^_'
'news^_'
'obs_'
'nt\u^_'
'marker^_'
'Fixed^_'
'')'
'zip\u^_'
'Begin_'
'xp'
'mp'
'ABC^_'
'INPUT\u^_'
'47'
'finished^_'
'category\u^_'
'whose^_'
'scalar^_'
'iterable^_'
'VC'
'supports^_'
'start'
'PORT^_'
'De^_'
'xbmc_'
'Role_'
'PD^_'
'Engine^_'
'nan_'
'..'
'use_'
'deprecated^_'
'recent^_'
'latex\u^_'
'2006^_'
'∅∅∅∅∅'_'
'mock^_'
'DR'
'Keys_'
'60'
'hours_'
'sensor^_'
'Description_'
'127_'
'xf'
'']'
'par_'
'.4'
'Lu^_'
'uf'
'init'
'vo'
'iface_'
'.1'
'Supported^_'
'204_'
'DM'
'Configuration_'
'SITE\u^_'
'complete_'
'metrics^_'
'params\u^_'
'Geo^_'
'parse'
'embed^_'
'874'
'references^_'
'GT'
'lp^_'
'rl'
'cp'
'BS'
'io'
'xi'
'ya^_'
'Win^_'
'remote_'
'states^_'
'we'
'STATE^_'
'};^_'
'par'
'.3'
'cursor^_'
'sequence\u^_'
'runtime^_'
'Dataset^_'
'Europe^_'
'merge_'
'act^_'
'symbols_'
'pc'
'util^_'
'Params^_'
'sets_'
'∅∅∅∅∅∅∅∅∅∅∅∅∅^_'
'')"_'
'leg'
'endif^_'
'extensions^_'
'Testing^_'
'ud'
'pkt_'
'History^_'
'ob'
'delimiter_'
'hr^_'
'IA'
'MC^_'
'abstract^_'
'Extractor^_'
'ame^_'
'OC'
'Geometry_'
'Struct_'
'conc'
'RE^_'
'da_'
'automatic\u^_'
'FE^_'
'configs_'
'Vo'
'Ki'
'binding_'
'LE'
'002^_'
'sizes_'
'qa'
'pad^_'
'nu'
'local'
'floating^_'
'CS'
'GI'
'Sizer_'
'H\u^_'
'TV^_'
'sin'
'EF'
'men'
'nick_'
'conn\u^_'
'gar'
'ranges_'
'Writer_'
'PT'
''\u\u\uCARET\u\u\u('
'Member^_'
'Extension_'
'save'
'mo^_'
'simple'
'Ju'
'ident_'
'M'
'.2'
'OD'
'keyword_'
'monitor^_'
'Counter_'
'tab'
'220'
'color'
'logs_'
'state'
'CH'
'Groups^_'
'228'
'folder\u^_'
'bre'
'Component_'
''../^_'
'son'
'Body^_'
'cd'
'sco'
'mem^_'
'-"_'
'sklearn_'
'dn'
'(-^_'
'ten^_'
'Key'
'geometry_'
'Two^_'
'003'
'UT'
'Apache^_'
'0x000'
'cs'
'jo'
'helper^_'
'PI^_'
'How^_'
'cert_'
'partition_'
'back'
'@@^_'
'Kit^_'
'der'
'multi'
'destroy_'
'fetch_'
'snapshot\u^_'
'EA'
'stats\u^_'
'Big^_'
'Ec'
'Dd^_'
'Folder_'
'>[\u\u\uCARET\u\u\u'
'>`^_'
'++^_'
'Git^_'
'gg^_'
'nc'
'ger'
'length\u^_'
'ui'
'!\\^_'
'checks^_'
'0000'
'ir'
'ncolor^_'
'014'
'conv^_'
'mesh^_'
'Certificate^_'
'a1_'
'scan\u^_'
'io\u^_'
'getvalue_'
'Py'
'converted^_'
'short'
'job'
'lin^_'
'interfaces_'
'round^_'
'backup\u^_'
'oa'
'.)^_'
'mask\u^_'
'ug'
'definitions^_'
'percent^_'
''>'_'
'At'
'com'
'Flags_'
'boot^_'
'Series^_'
'gal'
'tf\u^_'
'movie^_'
'ings^_'
'cached\u^_'
'Detail^_'
'Management^_'
'RI'
'Le'
'0.25_'
'IT'
'country_'
'para'
'ad_'
'ep_'
'dj'
'149'
'indexes_'
'dc_'
'byte_'
'dependencies^_'
'web\u^_'
'fa'
'low'
'Validator_'
'full_'
'SH^_'
'updated\u^_'
')"""_'
'140'
'AM'
'TESTS_'
'NA^_'
'vd'
'Da'
'"><^_'
'float\u^_'
'icon\u^_'
'PUT^_'
'LT'
'Ta'
'ports^_'
'UP^_'
'encode\u^_'
'team\u^_'
'generate_'
'pipeline^_'
'SETTINGS^_'
'gf'
'file'
'walk_'
'"</^_'
'mit'
'np'
'ALL^_'
'target'
'CN'
'machine_'
'Store_'
'FLAGS^_'
'd2_'
'lg'
'comparison^_'
'151'
'arc'
'release\u^_'
'HOST_'
'norm^_'
'bl'
'STATUS^_'
'pkg'
'sec'
'RE_'
'binding^_'
'ata'
'OBJECT^_'
'includes^_'
'TA'
'Events^_'
'2d_'
'rm'
'Symbol^_'
'Cmd_'
'terms_'
'whitespace^_'
'opt'
'bm'
'Che'
'den^_'
'land^_'
'players_'
'constraints_'
'PD'
'calculate\u^_'
'Cs'
'group'
'ny'
'On'
'compare\u^_'
'BA^_'
'SU'
'sr^_'
'relative\u^_'
'bla'
'Exist_'
'refresh^_'
'equivalent^_'
'has'
'.7'
'high_'
'Height_'
'009'
'Distance^_'
'202'
'Cookie^_'
'WARNING^_'
'[@^_'
'Track^_'
'Unique^_'
'He'
'digits^_'
'rmtree_'
'ok'
'Cor'
'bi'
'Red^_'
'997'
'temperature^_'
'006'
'l∅'
'fi^_'
'bd'
'pu'
''|'^_'
',"_'
'BC^_'
'333_'
'initializer_'
'Summary^_'
'gd'
'Temp^_'
'Ur'
').\\^_'
'Linear^_'
'theme^_'
'sea'
'.6'
'Control_'
'197'
'[]'
'978'
'jp^_'
'MM^_'
'940'
'Traced^_'
'workflow^_'
'rob'
'Qi^_'
'mc^_'
'CSV^_'
'()=^_'
'FC^_'
'PM'
'pc_'
'su^_'
'constructor^_'
'dh'
'nn'
'ftp^_'
'Co'
'gl'
'sam'
'acc_'
'power_'
'dx'
'dim'
'objs_'
'inf^_'
'party^_'
'reply^_'
'nr'
'te'
'transfer\u^_'
'Starting^_'
'}\u^_'
'alert^_'
'keras_'
'sto'
'LOG^_'
'receive^_'
'Ha'
'BA'
'metric\u^_'
'Codes_'
'Unless^_'
'Regex_'
'sum'
'pdb^_'
'cli^_'
'iterator_'
'Exit^_'
'parametrize_'
'ent'
'ig'
'AF'
'dates_'
'ni'
'cc\u^_'
'DP'
'spec\u^_'
'linspace_'
'blocks^_'
'conditions^_'
'ton^_'
'hg'
'pl'
'ev'
'kc'
'BL'
'ble\u^_'
'Nodes^_'
'Progress^_'
'who^_'
'git'
'():^_'
'very^_'
'PI'
'hours^_'
''∅∅∅∅∅^_'
'mail_'
'AV'
'ES'
'MM'
'Defaults^_'
'"""<^_'
'Sgit^_'
'Folder^_'
'main'
'mac_'
'gm'
'Gateway^_'
'split'
'211'
'segment_'
'vertices_'
'xc'
'score\u^_'
'nothing^_'
'lb'
'notify^_'
'reads^_'
'Wrapper_'
'export_'
'eg^_'
'field'
'poly'
'oli'
'975'
'Bi^_'
'ED'
'room_'
'Collection_'
'dist\u^_'
'vp'
'latitude^_'
'd∅'
'Fragment^_'
'getenv_'
'levels_'
'iti'
'RA'
'family_'
'GP'
'stmt_'
'ij'
'bus_'
'013'
'Alter^_'
'UN'
'sync_'
'sg'
'against^_'
'Attributes_'
'Author^_'
'RC'
'Nodes_'
'root'
'635'
'dy^_'
'aws^_'
'failed_'
'slot_'
'm∅'
'editor^_'
'processed_'
'IP_'
'updates^_'
'AUTH\u^_'
'tz'
'''''
'adding^_'
'.5'
'zi'
'javascript^_'
'Hu'
'No'
'deps_'
'Ar'
'bottom_'
'SL'
'art^_'
'driver\u^_'
'CB'
'service'
'wc'
'already\u^_'
'download_'
'CR'
'bn'
'msg'
'112_'
'precision^_'
'Par'
'exec_'
'mem'
'Catalog^_'
'ydk^_'
'()\\^_'
'ji'
'like_'
'completed^_'
'u'
'weight\u^_'
'DS^_'
'04_'
'://'
'configured^_'
'xi^_'
'stu'
'{:^_'
'755'
''""'_'
'814'
'YA'
'second\u^_'
'linalg_'
'pet'
'JOIN^_'
'BE'
'910'
':#^_'
'Am'
'Tuple_'
'UP'
'document\u^_'
'parsing^_'
'kp'
'index'
'Tags^_'
'221'
'configure^_'
'typing_'
'phase_'
'Auto'
'pos'
'ez'
'AS'
'supplied^_'
'647'
'cl^_'
'qs'
'ku^_'
'docs_'
'lit'
'label'
'evaluate_'
'199'
'namedtuple_'
'dis'
'compatible^_'
'auth'
'Whether^_'
'pin_'
'Day^_'
'om'
'ho'
'5357^_'
'cmd'
'Selection_'
'Ab'
'DATETIME\u^_'
'lists_'
'training\u^_'
'dlg_'
'suffix^_'
'Organization^_'
'subscription^_'
'rpc\u^_'
'dp_'
'Multi'
'WS'
'bt'
'uuid4_'
'mode\u^_'
'subnet_'
'maps^_'
'ling^_'
'Nu'
'tor'
'form'
'ou^_'
'PB^_'
'9'
'management^_'
'Min'
'227'
'Icon^_'
'Cmd^_'
'ts\u^_'
'ag^_'
'oauth^_'
'sigma^_'
'longitude^_'
'compute_'
'manifest^_'
'diff'
'012'
'js_'
'fixed\u^_'
'ck_'
'applied^_'
'212'
'conditions_'
'Ipv6^_'
'frozenset_'
'hist_'
'--'
'Ka'
'Lint_'
'updated_'
'bg_'
'732'
'ACT'
'examples_'
'hidden\u^_'
'narrowing_'
'SUB'
'Up'
'char'
'per'
'je^_'
'recv_'
'UA'
'rp'
'pa'
'gamma_'
'");^_'
'ica'
'010'
'ST'
'748'
'go_'
''=='_'
'od^_'
'case\u^_'
'198'
'ful^_'
'sp'
'sd^_'
'cal'
'look^_'
'RB'
'dv'
'Phone^_'
'pr^_'
'Timer^_'
'uto'
'vel'
'ipa'
'SEPARATOR_'
'Apple^_'
'nn^_'
'ARB^_'
'pending^_'
'medium^_'
'never^_'
'EVT\u^_'
'LIB'
'Attr^_'
'ah'
'mn'
'minutes^_'
'SQ^_'
'|\\'
'Sta'
'don'
'eth^_'
'uni^_'
'available\u^_'
'Mesh^_'
'Match_'
'\u\u\u^_'
'water^_'
'mh'
'0x80_'
'BB^_'
'EB'
'MODULE^_'
'cancel^_'
']*'
'href_'
'FT'
'941'
'README^_'
'08_'
'copy'
'vars^_'
'processed^_'
'stage^_'
'real_'
'Do'
'xy_'
'PT^_'
'NONE_'
'really^_'
'Backend^_'
'clock_'
'prompt_'
'gamma^_'
'perform^_'
'effect^_'
'Lu'
'fetchall_'
'dimensions^_'
'table'
'aa'
'major^_'
'Ja'
'Transform^_'
'EO'
'983'
'specs_'
'behavior^_'
'Additional^_'
'HE'
'Beautiful^_'
'surface_'
'publish^_'
'firefox^_'
'&,^_'
'"∅∅∅∅∅∅"_'
'Arrow^_'
'mark\u^_'
''[\u\u\uCARET\u\u\u'
'Radio^_'
'quit_'
'ema'
'Lang^_'
'ter'
'GL'
'EG'
'Shared^_'
'accept_'
'Signal^_'
'cls^_'
'actor_'
'avg\u^_'
'ER_'
'ser^_'
'predict_'
'ser_'
'224_'
'contenttypes^_'
'search'
'0x01'
'Mi^_'
'nin'
'cla'
'work\u^_'
'allclose_'
'contact_'
'refs_'
'877'
'subclass^_'
'Io^_'
'E'
'256'
'result'
'ch'
'reading^_'
'Setting_'
'jsonify_'
'GA^_'
'tn'
'RGB^_'
'ING_'
'et\u^_'
'el'
'tuples^_'
'Series_'
'Mat'
'Transaction^_'
'\u\u``^_'
'ano'
'head'
'Signature^_'
'san'
'CB^_'
'=>^_'
'rre'
'og'
'NG^_'
'notify_'
'Storage_'
'twisted_'
'EX^_'
'permission_'
'require\u^_'
'restart^_'
'826'
'pts_'
'015'
'eta'
'NN'
'NE'
'Si^_'
'06_'
'ot'
'016'
'DL'
'1.1'
'RPC^_'
'cert^_'
'[]"_'
'902'
'bio'
'Hi'
'ix'
'example\u^_'
'eti'
'0.8_'
'ong^_'
'Results_'
'OM'
'yu'
'ra'
'og^_'
'for'
'rec'
'complete\u^_'
'savefig_'
'POS_'
'Target_'
'tp_'
'Combo^_'
'splitlines_'
'math'
'REQUEST^_'
'Processing^_'
'∅∅∅∅'_'
'fix\u^_'
'new'
'qp'
'jd'
'Light^_'
'mer'
'partition^_'
'901'
'VA'
'ix^_'
'freq^_'
'0x00'
'normalize\u^_'
'matrix\u^_'
'KA'
'rx^_'
'sd'
'wm'
'0xA'
'400^_'
'950'
'Ya'
'Attr_'
'wsgi\u^_'
'mid'
'sentence_'
'des'
'phi_'
'∅i'
'iz'
'CK'
'BB'
'reserved^_'
'Enumeration^_'
'*\\'
'RS'
'10'
'L'
'LC'
'213'
'sig^_'
'897'
'gra'
'996'
'interfaces^_'
'52'
'Soup_'
'Au'
'ns\u^_'
'gen'
'ape'
')(^_'
'addresses^_'
'checked^_'
'hass_'
'blah^_'
'xr^_'
'PE^_'
'Exit_'
'buffer\u^_'
've'
'Mo^_'
'To_'
'era'
'UC'
'Pool_'
'Runner_'
'160_'
'code'
'ical^_'
'FP'
'minutes_'
'('_'
'span_'
'##^_'
'Received^_'
'server'
'Fill^_'
'building^_'
'NUM^_'
'missing_'
'pya'
'dec_'
'aaa^_'
'tp^_'
'chi'
'875'
'password\u^_'
'resolution^_'
'ign'
'PE'
'();^_'
'tensor\u^_'
'DB\u^_'
'So^_'
'194'
'figure^_'
'commit\u^_'
'rt'
'EN^_'
'.0'
'available_'
'Allow^_'
'.]'
'W\u^_'
'*)'
'ec'
'hand^_'
'sc^_'
'mass^_'
'curses_'
'statistics^_'
'foobar^_'
'LOGGER_'
'AN'
'transpose_'
'12'
'TIME^_'
'921'
'gu'
'961'
''\\\\'_'
'fla'
'Yes^_'
'hn'
'picture^_'
'red'
'surface^_'
'fr'
'ra_'
'connections_'
'Receive^_'
'cli'
'iteration^_'
'hc'
'k'
'exp'
'ict_'
'NUCLEAR^_'
'142'
'hide_'
'ao'
'sat'
'flatten_'
'deployment^_'
'zy'
'asset^_'
'ros'
'uri'
'Offset_'
'which_'
'align_'
'meth^_'
'gif^_'
'"*"_'
'nob'
'wrap^_'
'vol'
'constraint^_'
'course^_'
'Cb^_'
'sign'
'RP'
'Vi'
'En'
'Modules^_'
'="'
'Expr^_'
'Cleanup^_'
'classifiers_'
'Peer^_'
'updates_'
'LETTER^_'
'REPULSION^_'
'literal^_'
'883'
'FB^_'
'952'
'995'
'row'
'sections_'
'integer_'
'video'
'0x18'
'now\u^_'
'){^_'
'bi^_'
'sheet_'
'correctly^_'
'225'
'Shape^_'
':**^_'
'.8'
'2018^_'
'0x28_'
'sso'
'Real^_'
'041'
'rm_'
'renderer_'
'UPDATE^_'
'nk^_'
'na'
'sk^_'
'locations^_'
'UTC^_'
'Ga'
'ML^_'
'Ms'
'876'
'Reg^_'
'so'
'variant^_'
'bytes\u^_'
'oni'
'Co^_'
'stderr^_'
'm1_'
'moves_'
'CR^_'
'[-^_'
'939'
'nan^_'
'roles^_'
'mx_'
'sar'
'zs'
'Je'
'Switch^_'
'mc_'
'decode^_'
'ter_'
'full'
'tal'
'909'
'ys^_'
'ri'
'eni'
'TEXTNS_'
'141'
'`:^_'
'utcnow_'
'104_'
'gets'
'la'
'IE'
'Util_'
'ci'
'fd'
'ise'
'rie'
'Bu'
'BO'
'HEIGHT^_'
'989'
'229'
'0.4_'
'nbsp^_'
'executable_'
'refresh_'
'developer^_'
'ssa'
'BASE_'
'determine^_'
'Entity_'
'clusters_'
'ace^_'
'ko^_'
'ute^_'
'grid'
'scan_'
'rr_'
'556_'
'font'
'Di^_'
'EI'
'inv'
'ata^_'
'jm'
'din'
'vec^_'
'982'
'spi'
'ore'
'Addr^_'
'Gen^_'
'Luint_'
'970'
'Si'
'tz^_'
'env'
'Err^_'
'comb'
'lang'
'Redirect_'
'...'
'READ^_'
'sm_'
'rate\u^_'
'Constant^_'
'wf'
'Bytes_'
'greater^_'
'Elements^_'
'Question^_'
'background_'
'ft'
'ors_'
'gene\u^_'
'800^_'
'IS\u^_'
'(),^_'
'outputs^_'
''?^_'
'kd'
'MB'
'-----^_'
'rn^_'
'lt_'
'cv'
'Cursor_'
'ast^_'
'System_'
'CT^_'
'rating^_'
'vlan^_'
'Platform^_'
'cppclass_'
'west^_'
'il_'
'Ti'
'Bin^_'
'UM'
'Extra^_'
'sma'
'ol_'
'0.9_'
'Delay^_'
'ctxt_'
'nk'
'artist^_'
'ym'
'981'
'ene'
'61'
'frappe_'
'dist'
'comma^_'
'translate^_'
'DNS^_'
'mac'
'905'
'Checked_'
'au'
'509^_'
'cl'
'tail_'
'Without^_'
'>'
'891'
'Gra'
'su'
'Force^_'
'FB'
'Ma'
'897^_'
'501^_'
'ren'
'PR'
'[\u\u\uCARET\u\u\u>'
'async^_'
'Player_'
'em'
'SHA^_'
'Services^_'
'BC'
'wi'
'VP'
'EV'
'TER'
'329'
'TCP^_'
'qd'
'917'
'rv^_'
'ry_'
'wc\u^_'
'panel^_'
'mb'
'redirect\u^_'
'hdr_'
'vol^_'
'fast^_'
'Ratio^_'
'963'
'refresh\u^_'
'pen'
'sl^_'
'ssl\u^_'
'mel'
'ANY_'
'pixel^_'
'nop'
'984'
'coverage^_'
'arrow^_'
'len\u^_'
'cross^_'
'Te^_'
'As'
'chunks_'
'107_'
'unexpected^_'
'schedule^_'
'IM'
'templates_'
'Mi'
'locations_'
'vin'
'bases_'
'ph'
'AU'
'cat'
'COLOR\u^_'
'904'
'Pattern_'
'GS'
'SECURITY^_'
'gg'
'Ctrl^_'
'Downloading^_'
'986'
'lab^_'
'hour^_'
'005'
'zhou^_'
'cycle^_'
'bu'
'0x30_'
'double_'
'NAME\u^_'
'202_'
'IN\u^_'
'gr^_'
''∅^_'
'log'
'abort_'
'lam'
'hide^_'
'sen'
'ance^_'
'Tri'
'"/'
'edi'
'Geo'
'conv_'
'930'
'912'
'integers^_'
'EA^_'
'1e'
'tokens^_'
'5.0_'
'bib'
'vb'
'html'
'dat_'
'statements^_'
'virtual\u^_'
'mapper_'
'042'
'compiler^_'
'spaces^_'
'Pr'
'strptime_'
'cmap_'
'tx\u^_'
'ens'
'po'
'886'
'osc'
'cross'
'raw'
'op'
'He^_'
'"@^_'
'flag\u^_'
'nta'
'bind\u^_'
'NV'
''∅∅∅∅^_'
'sql'
'yield^_'
'0000_'
'Char_'
'work'
'company^_'
'999'
'species^_'
'outdir_'
'vi^_'
''-'
'sv'
'pm_'
'go'
'vers'
'255'
'Func^_'
'Go^_'
'tele'
'fg^_'
'south_'
'stage_'
'880'
'108_'
'AT'
'uniform_'
'[,^_'
'music^_'
'nb'
'Category_'
'ero'
'chat^_'
'encoded^_'
'Sn'
'trans^_'
'mid_'
'sym_'
'900'
'913'
'prev^_'
'getopt_'
'Filename_'
'Calculate^_'
'bb'
'044'
'ste'
'"./^_'
'decorators_'
'compile\u^_'
'991'
'Are^_'
'ot_'
'Choice^_'
'ni^_'
'0x14_'
'conversion^_'
'expressions^_'
'router\u^_'
'191'
'Za^_'
'EN'
'vf'
'twitter^_'
'Den'
'EF^_'
'IG'
'908'
'failure_'
'894'
'AB'
'RC^_'
'manifest_'
'Atom^_'
'bundle^_'
'n1_'
'896'
'sm'
'">'
'dat'
'Special^_'
'before\u^_'
'encode^_'
'EP'
'cum'
'Back^_'
'nodes\u^_'
'PA'
'923'
');\\^_'
'\'
'nh^_'
'step'
'l2_'
'Master^_'
'903'
'xm'
'tk'
'ops^_'
'lg^_'
'her^_'
'sol'
'ek^_'
'dd_'
'959'
'di'
'send'
'172^_'
'sending^_'
'rep_'
'BU'
'first'
'inv_'
'calculate^_'
'dispatch_'
'schedule_'
'Job_'
'Counting^_'
'li'
'summary\u^_'
'axes^_'
'necessary^_'
'documents^_'
'exception\u^_'
'}:^_'
'tm_'
'secret\u^_'
'rn'
'To'
'kg^_'
'page'
'priv'
'phi'
'TE'
'kmi_'
'exclude^_'
'pyp'
'pi'
'945'
'204'
'ack^_'
'Margin^_'
'scr'
'plus_'
'can'
'AL'
'fun'
'``.\\^_'
'rospy_'
'operators^_'
'gh'
'sky'
'ble'
'ain^_'
'da'
'TRA'
'Dsr^_'
'tornado_'
'SN'
'svn^_'
'ons_'
'AE'
'120^_'
'monitor_'
'Ret'
'ta'
'radio^_'
'filename\u^_'
'899'
'e1_'
'example_'
'Har'
'915'
'tions^_'
'sleep^_'
'ph^_'
'logical^_'
'ade'
'918'
'turn^_'
'limits_'
'CPU^_'
'003^_'
'right'
'Mapping^_'
'coordinate^_'
'resize_'
'future_'
'PRE'
'Dataset_'
'MAC^_'
'review^_'
'AAAAAAAAAAAAAAA^_'
'ov'
'SE'
'expand_'
'pot'
'00000'
'pull^_'
'checker_'
'transform\u^_'
'ort'
'pace^_'
'919'
'De'
'Max_'
'10.0_'
'PURPOSE^_'
'Aggregate^_'
'IB'
'07_'
'param'
'Os'
'Zhi^_'
'evt_'
'Dynamic^_'
'Primary^_'
'signal\u^_'
'ed'
'colour^_'
'Pass^_'
'sla'
'peer^_'
'sort'
'JS^_'
'"<'
'ay'
'SHORT\u^_'
'EXT_'
'RR'
'tin'
'220_'
'mes'
'callback\u^_'
'validation\u^_'
'forward_'
'object'
'console_'
'misc_'
'f2_'
'192_'
'pipe_'
'PFNGL'
'qm'
'repo'
'season^_'
'ATTR^_'
'wifi^_'
'})^_'
'973'
'parents_'
'782'
'without\u^_'
'mark'
'Timer_'
'td_'
'know^_'
'115_'
'rpc_'
'gui'
'sy'
'energy_'
'976'
'some'
'929'
'addresses_'
'wl'
'bo^_'
'dummy\u^_'
'Alpha^_'
'hr'
'Ap'
'II^_'
'Ji'
''|^_'
'ssl_'
'934'
'Lock_'
'222_'
'180'
'EVENT^_'
'Ls'
'INPUT^_'
'ator^_'
')``^_'
'inner\u^_'
'Center^_'
'separator_'
'st'
'pin^_'
'Xml^_'
'openstack^_'
'down\u^_'
'org\u^_'
'bound_'
''∅∅∅∅∅∅∅'_'
'rom'
'CG^_'
'article_'
'segments_'
'imported^_'
'tile\u^_'
'Update_'
'2001^_'
'0x20'
'040'
'produced^_'
'standard\u^_'
'might^_'
'view'
'man'
'album^_'
'safe^_'
'audio\u^_'
'ant'
'swi'
'light'
'ner'
'over'
'925'
'Jo'
'edgelist^_'
'201^_'
'Properties_'
'926'
'vol\u^_'
'hk'
'desired^_'
'fake'
'eli'
'pc^_'
'Len_'
'analysis_'
'924'
'{}\\^_'
'successful^_'
'SEC'
'Destination^_'
'rel_'
'MODE^_'
'wn'
'fan'
'tring_'
'935'
'expect^_'
'AG'
'sim\u^_'
'normalize_'
'cos^_'
'orig_'
'992'
'914'
'Circuit^_'
'969'
'911'
'uv'
'Val'
'8\u^_'
'yc'
'Wa'
'ylim_'
'realpath_'
'907'
'937'
'processor_'
'xo'
'OUT^_'
'BD'
'day\u^_'
'buttons_'
'968'
'mal'
'ready^_'
'percent_'
'subs'
'cle'
'Keys^_'
'loading^_'
'Wi'
'Win'
'compare_'
'pylab_'
'is'
'ey^_'
'particular^_'
'lm^_'
'sin^_'
'sou'
'formatted^_'
'solver_'
'Er'
'original_'
'rand_'
'co_'
'inf_'
'fin'
'center\u^_'
'ap'
'948'
'qi'
'Flask_'
'resolution_'
'Done^_'
'988'
'Tu'
'%%^_'
'pp'
'city_'
'Yan^_'
'ort^_'
'cookie^_'
'xs^_'
'007'
'cases_'
'nde'
'registry^_'
'972'
'show'
'UR'
'Port'
'017'
'mg'
'place_'
'103_'
'nse'
'issue_'
'889'
'regular^_'
'By_'
'Ir'
'External^_'
'xml'
'ATTR\u^_'
'ID'
'ama'
'tm'
'Return_'
'FL'
'trans'
'979'
'dar'
'lon'
'bli'
'idx\u^_'
']'
'FITNESS^_'
'tag'
'Rec'
'shared_'
'V'
'sli'
'cit'
'abs\u^_'
'(*^_'
'phi^_'
'lan'
'GN'
'Generated^_'
'mx'
'00001'
'put'
'scripts_'
'[\u\u\uCARET\u\u\u'
'("_'
'logger^_'
'frac^_'
'SMS^_'
'finally^_'
'tar'
'graph'
'ao^_'
'Modified^_'
'MERCHANTABILITY^_'
'eq\u\u_'
'966'
'NM'
'axis\u^_'
'fre'
'bridge^_'
'bat'
'sw'
'dep_'
'Metric^_'
'nit'
'ndim_'
'hv'
'wr'
'latest\u^_'
'SD^_'
'PARTICULAR^_'
'letter_'
'sh'
'ua'
'HU'
'GO'
'tit'
'default'
'Ext^_'
'0xC'
'916'
'\\.)?^_'
'nne'
'990'
'pip^_'
'prog^_'
'953'
'pr'
'blob_'
'Close_'
'Symbol_'
'precision_'
'rule'
'964'
'994'
'**\\:^_'
'887'
'206'
'runs^_'
'letter^_'
'slots^_'
'MO'
'cg'
'OID_'
'nr_'
'977'
'KEY'
'Points_'
'TEMPLATE\u^_'
'scheduler_'
'931'
'various^_'
'jn'
'attr'
'bri'
'n∅'
'considered^_'
'4.0_'
'individual^_'
'pretty^_'
'180^_'
'TRI'
'145'
'deep'
'800_'
'REC'
'te\u^_'
'strip\u^_'
'\\']'
'wh'
'CODE^_'
'dev'
'separator^_'
'que'
'Men'
'PH'
'993'
''//^_'
'hat'
'switch_'
'rev^_'
'tile^_'
'xl'
'Temporary^_'
'msgs_'
'ning^_'
'switch\u^_'
'954'
'ql^_'
'getitem\u\u_'
'pyt'
'195'
'eri'
'DJANGO^_'
'upgrade^_'
'known\u^_'
'MB^_'
'943'
'name\u_'
'Ver'
'fun_'
'zk'
'rf^_'
'subs_'
'c∅'
'loss\u^_'
'kv'
'Base\u^_'
'Expression^_'
'mm_'
'yellow^_'
'th'
'nr^_'
'Filename^_'
'problem_'
'ult'
'0x40_'
'146'
'ena'
'UNI'
'qr'
'website^_'
'tz_'
'WARRANTY^_'
'offset\u^_'
'transfer^_'
'BIN'
'933'
'point'
'pro'
'PF'
'ins'
'del\u^_'
'884'
'sent_'
'Scheduler^_'
'foot'
'3d_'
'Bra'
'Authorization^_'
'nm'
'dec^_'
'ly\u^_'
'bug^_'
'clone_'
'Z'
'inde'
'ere'
'CO^_'
'tan'
'Bi'
'currency^_'
'ii'
'norm\u^_'
'li_'
'unit'
'connections^_'
'initialize^_'
'cert\u^_'
'Pcap^_'
'reverse\u^_'
'ying^_'
'gcc^_'
'site'
'ard'
'956'
'jc'
'a2_'
'frequency_'
'ON'
'argument\u^_'
'223'
'ina'
'push\u^_'
'GET'
'functions\u^_'
'/?^_'
'nl'
'fs\u^_'
'look'
'mat^_'
'PRO'
'cer'
'retry_'
'spo'
'lar'
'ped^_'
'Buffer_'
'solution_'
'distribution_'
'ab'
'NP'
'FD'
'906'
'frame'
'bias_'
'Col_'
'reply\u^_'
'products^_'
'341'
'SC^_'
'signals_'
'epi'
'-->^_'
'FORMATS_'
'activation_'
'Timestamp^_'
'eps_'
'decref\u^_'
'Tor'
'expand\u^_'
'942'
'activity_'
'HS'
'POINT^_'
'modified_'
'kl'
'TI'
''('_'
'947'
'Any_'
'res'
'compliance^_'
'options\u^_'
'ml_'
'art_'
'incref\u^_'
'DF^_'
'cha'
'987'
'gets^_'
'ita'
'urlencode_'
'bby'
'id'
'ti'
'After^_'
'orientation_'
'zone\u^_'
'111^_'
'transport^_'
'Unref^_'
'icon'
'std'
'mc'
'881'
'WI'
'49'
'cu'
'peekref\u^_'
'09_'
'245_'
'ela'
'l1_'
'Africa^_'
'Align^_'
''{"^_'
'						_'
'fix'
'KE^_'
'ky^_'
'``\\'^_'
'Operating^_'
'conv\u^_'
'pretty\u^_'
'ATTRIBUTE_'
'cap^_'
'Ba^_'
'ian'
'xlim_'
'FR'
'668'
'CM^_'
'hap'
'coordinates_'
'resolve\u^_'
'constraint_'
'ips_'
'648'
'al'
'lic'
'/\\^_'
'965'
'mv'
'Con'
'938'
'clo'
'951'
'203'
'hex'
'IL'
'geo'
'float'
'SSH^_'
'bad'
'Dictionary^_'
'cfg\u^_'
'dig'
'clients_'
'IO'
''#'
'unless^_'
'671'
''!='_'
'sqlite3_'
'fi'
'logfile_'
'decorator_'
'provisioning^_'
'gov^_'
'flat_'
'shuffle_'
'892'
''@'_'
'redistribute^_'
'strict^_'
'Ao^_'
'stock^_'
'Initial^_'
'944'
'0.02'
'DW'
'Ad^_'
'xh'
'true\u^_'
'nos'
'Possible^_'
'camera^_'
'971'
'EE^_'
'=\\"'
'Suite_'
'tie'
'experiment^_'
'301'
':-^_'
'uns'
'045'
'633'
'cas'
'mon^_'
'Hi^_'
'rgb^_'
'LD^_'
'ky'
'fast'
'annotation^_'
'sudo^_'
'symbols^_'
'400'
'chan'
'flash_'
'fp^_'
'asset\u^_'
'expanduser_'
'multiple\u^_'
'verbosity_'
'ins_'
'ica^_'
'Hop^_'
'AM^_'
'Identity^_'
'eno'
'ord'
'Keyword^_'
'adapter_'
'ira'
'928'
'nc_'
'sz'
'real'
'Ip'
'tos'
'DATE^_'
'Im'
'Aw^_'
'Execution^_'
'Chi^_'
'stat'
'816'
'Ce'
'class'
'960'
'super^_'
'uk'
'pra'
'star^_'
'bg'
'deleted_'
'libs^_'
'optimizer_'
'878'
'∅∅∅∅'
'PASSWORD^_'
'TC'
'125_'
'wd_'
'230'
'Re^_'
'974'
'contact\u^_'
'executable^_'
'UL'
'backend\u^_'
'hidden_'
'958'
'pb^_'
'VAR'
'yn'
'cam'
'mail'
'214'
't0_'
'Ut'
'815'
'Po'
'tes^_'
'210_'
'962'
'rna'
'0xD'
'wp'
'count'
'builtin^_'
'UI'
'or'
'Intended^_'
']+'
'IE^_'
'dimensions_'
'dg'
'Fast^_'
'6\u^_'
'shape\u^_'
'ON\u^_'
'658'
'CK^_'
'823'
'XE'
'lng^_'
'pyg'
'idi'
'ctrl_'
'ime^_'
'Assign^_'
'::'
'chunk^_'
'fg_'
'818'
'Jian^_'
'196'
'Sam'
'les'
'tur'
'workspace^_'
'PROJECT\u^_'
'dll^_'
'Ju^_'
'             _'
'CU'
'TIM^_'
'278_'
'swa'
'cv^_'
'753'
'operation\u^_'
'fm'
'assign^_'
'FO'
'What^_'
'Can'
'201'
'Driver_'
'985'
'plane^_'
'und^_'
'Include^_'
'networks^_'
'MONTH\u^_'
'641'
'repeat_'
'ar\u^_'
'ne'
'":{"^_'
'askbot^_'
'Head^_'
'acc'
'0.03'
'django\u^_'
'927'
'vr'
'klass_'
'232'
'      _'
'cms_'
'098'
'ele'
'this'
'ase'
'Tex^_'
'collections^_'
'play_'
'Numeric^_'
'\\',^_'
'Du'
'LIST\u^_'
'Ascii^_'
'0x2'
'transitions_'
'almost\u^_'
'east^_'
'cloud'
'Microsoft^_'
'e2_'
'RES'
'100.0_'
'perm_'
'955'
'explicit^_'
'Try^_'
'BSD^_'
'}]'
'power\u^_'
'share_'
'Mapping_'
'zp'
'omi'
'114_'
'=['
'SI^_'
'12.'
'Data'
'Future^_'
'ard^_'
'worker\u^_'
'learning^_'
'230_'
'catalog_'
'224^_'
'hexdigest_'
'be\u^_'
'wrap\u^_'
'(('
'\\'\\^_'
'emb'
'0xFF_'
'∅a'
't'
'>/^_'
'LINE^_'
'workspace_'
'm2_'
'330'
'lot^_'
'VS'
'spec'
'mbi'
'764'
'rb_'
'Audience^_'
'nu^_'
'ar'
'eng'
'110^_'
'[[^_'
'nar'
'checks_'
'kit'
'inp'
'920'
'030'
'km_'
'gh^_'
'vl'
'staff^_'
'rgb_'
'bl\u^_'
'::\u^_'
'prod^_'
'ob_'
'parts^_'
'Res'
'places_'
'Spin^_'
'Otherwise^_'
'tre'
'returncode_'
'equals_'
'thrift\u^_'
'Creating^_'
'ax1_'
'ton'
'sq'
'∅∅o^_'
'211_'
'flavor^_'
'workdir_'
'ral^_'
'663'
'high'
'week^_'
'depends^_'
'Got^_'
'ORDER^_'
'Ge'
'bbox_'
'ue'
't∅'
'Generator^_'
'cra'
'correct\u^_'
'Threshold^_'
'uc'
'020'
'pub^_'
'placeholder_'
'geom_'
'registration^_'
'indi'
'func'
'volumes^_'
'dw'
'languages^_'
'han'
'fl'
'as'
'Mac'
'rl_'
'TAGL_'
'SG'
'learning\u^_'
'home\u^_'
'Owner^_'
'quote\u^_'
'ih'
'eq'
'screen\u^_'
'chr^_'
'kh'
'TX^_'
'51'
'hand'
'em_'
'Ku'
'895'
'down'
'ui\u^_'
'ca'
'RU'
'Rs'
'008'
'Dc'
').'_'
'ND^_'
'sand'
'Trailer^_'
'2019^_'
'Country^_'
'camera_'
'Word_'
'250^_'
'CONFIG^_'
'∅r'
'QA'
'Ste'
'subnet\u^_'
'alt_'
'sv^_'
'playlist_'
'restype_'
'sn'
'projects_'
'Trading^_'
'794'
'OUTPUT^_'
'340'
'PL'
'ROOT\u^_'
'predictions_'
'gi^_'
'n2_'
'isp'
'ris'
'game'
'Execute^_'
'ib'
'Edge^_'
'getf'
'zc'
'mag'
'cute^_'
'archive_'
'ili'
'pha'
'rpc^_'
'pdf_'
'512^_'
'1.0'
'LR'
'OP\u^_'
'148'
'215'
'ack'
'LEFT_'
'cookies_'
'0x1F'
'0x33'
'UM^_'
'882'
'fault^_'
'Resources^_'
'p2'
'J_'
'949'
'og\u^_'
'internal_'
'Api_'
'pan'
'?)'
'Network_'
'Azure^_'
'sal'
'Model\u^_'
'gre'
'cond'
'\\.'
'gy'
'UE'
'hook^_'
'tc_'
'gc_'
'233_'
'two\u^_'
'kt'
'json'
'TODO^_'
'invoked^_'
'Duration^_'
'eu^_'
'-]'
'pack^_'
'Geometry^_'
'MIN^_'
''),)"_'
'NF'
'many_'
'impl^_'
'ede'
'RT^_'
'led^_'
'tl^_'
'reduce\u^_'
'Disable^_'
'counts^_'
'strategy_'
'dem'
'Seconds^_'
'upload_'
'according^_'
'∅c'
'head\u^_'
'oi'
'140_'
'par^_'
'attachment^_'
'extended^_'
'"-'
'R'
'Structure_'
'OS'
'mapping\u^_'
'war'
'}/{^_'
'Render^_'
'emp'
'ass'
'Asset^_'
'un'
'loop\u^_'
'LOG'
'+"_'
'0x01_'
'UB'
'lap'
'handling^_'
'utc_'
'mo'
'OA'
'aci'
'dashboard^_'
'sys\u^_'
'LP'
'247_'
'235'
'dtypes_'
'Ed'
'ds\u^_'
'communicate_'
'Stats_'
'170'
'GU'
'resp\u^_'
'Pre'
'GROUP^_'
'ids\u^_'
'component\u^_'
'cd_'
'967'
')]'
'y0_'
'used_'
'212_'
'ss'
'121_'
'visit\u^_'
'nfo_'
'RE'
'TIME_'
'Al'
'meter^_'
'artist_'
'topic\u^_'
'assign_'
'repeat^_'
'media'
'Feature_'
'106_'
'cj'
'0.000'
'episode_'
'torch_'
'REF'
'Market^_'
'qu'
'trigger_'
'pwd_'
'Assessment^_'
'linked^_'
'enc'
'SF'
's2'
'unable^_'
'UUID_'
'should_'
's3\u^_'
'nh'
'lla'
'http'
'micro'
'215_'
'*)^_'
')}^_'
'cre'
'clf_'
'inc^_'
'isa'
'vo^_'
'hin'
'stat\u^_'
'dia'
'Mp'
'card\u^_'
'TEMPLATE_'
'Sel^_'
'fc_'
'mount^_'
'Gl'
'FA^_'
'uo'
'TM'
'Press^_'
'wer'
'choose^_'
'OF\u^_'
'Trans'
'struct\u^_'
'FS'
'salt^_'
'Database_'
'ignore_'
'Blue^_'
'116_'
'press^_'
'Cha'
'nz'
'wise^_'
'places^_'
'generic_'
'sup'
'Ii^_'
'WIDTH_'
'drop_'
'Staff^_'
'Base'
'deletion_'
'factory^_'
'Fe'
'rec^_'
'core'
'KI'
'signed^_'
'Play'
'floor_'
'redis_'
'=''
'ol'
'pf^_'
'~_'
'sel'
'ndarray_'
'ak'
'0xE'
'optparse_'
'track'
'occ'
'/=_'
'TX'
'power'
'ref'
'pr_'
'gr_'
'166'
'SB'
'na_'
'bk'
'Hash_'
'bel'
'pm^_'
'210'
'MEDIA\u^_'
'War'
'mas'
'1.6'
'Ot'
'series\u^_'
'zero_'
'cur'
'259'
'rh'
'inv^_'
'ura'
'893'
'946'
'number'
'eth'
'FAKE\u^_'
'capacity^_'
'REQUEST_'
'Shell^_'
'argtypes_'
'gui^_'
'bed^_'
'override\u^_'
'Gui^_'
'js\u^_'
'pie'
'cancel_'
'\\""_'
'poll_'
'payload\u^_'
'training_'
'style\u^_'
'arm^_'
'Zip^_'
'Revision^_'
'datasets_'
'afii^_'
'TU'
'885'
'Packet_'
'Host_'
'bytearray_'
'ep'
'Work^_'
'produces^_'
'Default_'
'Tele'
'ore_'
'handler\u^_'
'ible^_'
'OUT'
'hit^_'
'ence^_'
'age\u^_'
'ada'
'connector_'
'ig^_'
'avg_'
'described^_'
'Shift^_'
'xe'
'mox_'
'Rsp^_'
'rename_'
'compiler_'
'reached^_'
'running\u^_'
'NE^_'
'short_'
'acl^_'
'GPS^_'
'";^_'
'")'
'formatting^_'
'mass_'
'initialize_'
'stream'
'Drop^_'
'sep^_'
'879'
'WRITE^_'
'part'
'multiprocessing_'
'248_'
'401_'
'pw'
'segment\u^_'
'019'
'160'
'fg'
'Imp'
'BF^_'
'339'
'boolean_'
'xxx^_'
'edges^_'
'forms^_'
'\u\u.^_'
'Ld'
'progress\u^_'
'OBJ'
'disable\u^_'
'1.3'
'URI_'
''\\'
'tool\u^_'
'043'
'mpi'
'181'
'acc^_'
'ize'
'161'
'coa'
'decimal_'
'URL\u^_'
'ex\u^_'
'ber^_'
'oti'
'Wei^_'
'blit_'
'113_'
'oo^_'
'thing^_'
'oc_'
'finished_'
'subfield^_'
'DU'
'frames^_'
'ras'
'DAY\u^_'
'395'
'retry\u^_'
'ldap^_'
'final_'
'Replace^_'
'ow'
'Solution_'
'defs_'
'Sol'
'109_'
'wt'
'directories^_'
'creates^_'
'270'
'Approved^_'
'meta'
'Safe^_'
'stmt^_'
'Mon'
'tt_'
'notification_'
'digest_'
'stride_'
'prefix\u^_'
'alg_'
'Pro'
'IN_'
'bash^_'
'890'
'264'
'nel'
'Body_'
'lower\u^_'
'must\u^_'
'"!^_'
'225_'
'asi'
'ana^_'
'tbl^_'
'``\\^_'
'OL'
'VER'
'xx_'
'MAP^_'
'BP'
'Va'
'RM'
'esi'
'Parent_'
'pad\u^_'
'sg_'
'[]^_'
'Shape_'
'pg_'
'Ls^_'
's∅'
'INDEX^_'
'Xi'
'tc^_'
']}'
'proc'
'neutron_'
'loop'
'callable_'
'Arg^_'
'235_'
'eco'
'tg'
'VO'
'City^_'
'dde'
'internet^_'
''{{^_'
'lock\u^_'
'Gu'
'lin'
'"*^_'
'btn_'
'Ke'
'5000_'
'192'
'mime^_'
'tot'
'reactor_'
'mor'
'branch\u^_'
'343'
'ib_'
'GE^_'
'REG'
'Bit'
'ath'
'Ic'
'011'
'tro'
'PB'
'pe'
'snap^_'
'qua'
'∅∅∅∅∅∅'_'
'HEAD^_'
'Metadata_'
'flavor_'
'actually^_'
'ATION^_'
'TF'
'clicked^_'
'cross\u^_'
'lr_'
'Twitter^_'
'lli'
'qt^_'
'reports^_'
'mandatory^_'
'band^_'
'Fields^_'
'Reference_'
'BR'
'thing_'
'rename^_'
'req'
'dns_'
'az'
'Real'
'play\u^_'
'Cy'
'202^_'
'tom'
'array'
')('
'IR^_'
'xyz^_'
'Mu'
'zh'
'rotation_'
'ban'
'codes^_'
'CFUNCTYPE_'
'yp'
'ure'
'ATT'
'ensure^_'
'Dep'
'CV'
'additional\u^_'
'154'
'Ps'
'")"_'
'oid_'
'ate'
'cin'
'sizes^_'
'Condition^_'
'rest'
'uli'
'detected^_'
'TP^_'
'che^_'
'OP'
'ized^_'
'TIMEOUT_'
'bol'
'Need^_'
'Pattern^_'
'Bits^_'
'join\u^_'
'207'
'modifiers_'
'xv'
'Now^_'
'=%(^_'
'ca_'
'Speed^_'
'require_'
'Checks^_'
'S'
'(['
'cube_'
'posts^_'
'fakes_'
'Unit_'
'dan'
'CHAR\u^_'
'Click^_'
'unlink_'
'ACCESS^_'
'Cons_'
'det'
'")'_'
'296'
'Dispose^_'
'Bind_'
'"\u\u\uCARET\u\u\u^'
'TLG^_'
'Area_'
'Ofdm^_'
'Search_'
'gram^_'
''!^_'
'names\u^_'
'Ok^_'
'im\u^_'
'377^_'
'give^_'
'SOFTWARE^_'
'si_'
'Shi^_'
'near'
'ran'
'evaluate^_'
'concatenate_'
'men^_'
'0x38_'
'attempt^_'
'ib^_'
'displayed^_'
'AAA'
'python'
'exe_'
'">'_'
'arr'
'CASCADE_'
'"('
'N'
'WIFI^_'
'AL\u^_'
'Stack_'
'oci'
'nac'
'119_'
'mi'
'pri'
'37.41039_'
'122.059652_'
'clone^_'
'ota'
'finish_'
'Environment_'
'Extended^_'
'plan_'
'ction^_'
'iterable_'
'limit\u^_'
'2d'
'PG'
'dfhf^_'
'per_'
'sender^_'
'150^_'
'human^_'
'205'
'Inventory^_'
'kan'
'derived^_'
'GET\u^_'
'enable_'
'936'
'sing^_'
'TS^_'
'connected_'
'syn'
'MAN'
'3._'
'represent^_'
'dx^_'
'Cur'
'psi'
'vector\u^_'
'cached^_'
'ai'
'nth'
'ether'
'Su'
'grad\u^_'
'922'
'SR^_'
'cmp_'
'373'
'closed_'
'jan'
'8613'
'restore^_'
'enti'
'ME'
'Xian^_'
'Firefox^_'
'noise^_'
'JA'
'>>^_'
'tolist_'
'pre_'
'ones^_'
'ready_'
'ven'
'Aa'
'fits^_'
'ave^_'
'tif^_'
'TT^_'
'GM'
'are'
'cut^_'
'tzinfo_'
'sqrt^_'
'299'
'widget\u^_'
'makes^_'
'0001'
'working\u^_'
'spl'
'USER_'
'091'
'}|'
'Code'
'}"^_'
'free'
'nat'
'U\u^_'
'Des'
'unicode\u\u_'
'357'
'rss^_'
'evaluated^_'
'118_'
'nre'
'requirements^_'
'byte\u^_'
'po^_'
'Lin'
'GL_'
'callbacks_'
'Channel_'
'Ye'
'Om'
'upgrade_'
'Off^_'
'FR^_'
'iterations_'
'invalid_'
'Sv'
'Bo^_'
'slice\u^_'
'Trigger^_'
'ans'
'CLASS_'
'ac_'
'noc'
'zero\u^_'
'infos_'
'CAL'
'clock^_'
'tick_'
'socket\u^_'
'END_'
'occurs^_'
'Zu'
'Ob'
'fasta^_'
'filtered\u^_'
'932'
'ACC'
'oh'
'rk'
'rights^_'
'dos^_'
'GUI^_'
'online^_'
'duplicate^_'
'075'
'nce_'
'mol_'
'Selected^_'
'Zo'
'090'
''}'_'
'214_'
'aba'
'wsgi^_'
'cloud\u^_'
'ico'
'282'
'iv'
'0.07'
'volumes_'
'Root_'
'simulation^_'
'rsa'
'taken^_'
'Lib^_'
'ue_'
'e-0'
'HM'
'232_'
'theta^_'
'quantity^_'
'pe_'
'Expression_'
'Monitor^_'
'Af'
'backup_'
'dns'
'outside^_'
'Grid_'
'mt^_'
'chart^_'
'Skip^_'
'mac\u^_'
'relation^_'
'low\u^_'
'bundle_'
'TLS^_'
'216_'
'Lines_'
'rid^_'
'hit'
'workers_'
'override_'
'de'
'Tools^_'
'OFP'
'Registration^_'
'JU'
'clip^_'
'b1_'
'der_'
'initialize\u^_'
'ami'
'norm'
'prec'
'atom\u^_'
'dst'
'die'
'Analysis^_'
'1101'
'format'
'annotations_'
'por'
'sg^_'
'360_'
'eg'
'VT'
'rma'
'routes_'
'gdata^_'
'find'
''>'
'nx'
'man\u^_'
'ION_'
'Mean^_'
'repos^_'
'102^_'
'chat\u^_'
'issues^_'
'xy^_'
'notice^_'
'fetchone_'
'css\u^_'
'?://(?:^_'
'shapes_'
'NC^_'
'428'
'Bundle^_'
'parallel^_'
'Meta'
'mtlb^_'
'constant\u^_'
'Branch^_'
'customer^_'
'stack'
'UD'
'be_'
'scene^_'
'ci_'
'aj'
'datetime\u^_'
'SYSTEM^_'
'0.6_'
'117_'
'Ts'
'dw^_'
'difference^_'
'ft_'
'957'
'Sort^_'
'calc^_'
'tests\u^_'
'hg^_'
'CAN'
'linewidth_'
'isi'
'wa^_'
'mut'
'"]^_'
'addr\u^_'
'ase^_'
'ob^_'
'scenario_'
'hp^_'
'Objects^_'
'providers^_'
'Int16_'
'draw'
'network'
'jy'
'ante'
'oc'
'yb'
'SERVER\u^_'
'builder^_'
'imm'
'302_'
'rp^_'
'vendor^_'
'Collision^_'
'circle'
'190'
'ou'
'Book^_'
'171'
'Editor^_'
'spot'
'occurred^_'
'pyb'
'create'
'Specify^_'
'ufe^_'
'lf^_'
'zone'
'scroll^_'
'similar^_'
'Fail^_'
'0338^_'
'undefined^_'
'newdoc_'
'432'
'player'
'roc'
'Non'
'888'
'LEFT^_'
'use'
'len'
'ale'
'0x1f'
']+^_'
'sub'
'ML'
'cz'
'cards_'
'eh'
'NUM\u^_'
'dicts_'
'pho'
'car^_'
'std\u^_'
'Func_'
'script'
'curve^_'
'fun^_'
'Mark^_'
'wiki'
'ree'
'positions^_'
'Skill^_'
'self\u^_'
'122_'
'alignment_'
'130_'
'zt'
'386^_'
'rad'
'mappings^_'
'HTML_'
'traceback^_'
'STD'
'ime'
'Id'
'specification^_'
'fully^_'
'elo'
'pycopia_'
'ADD^_'
'Wu^_'
'utilities_'
'se'
'Handle_'
'DROP^_'
'Cd'
'Actor^_'
'219_'
'Pointer^_'
'ish^_'
'Cs^_'
'system'
'float64_'
'1000'
'debugging^_'
'Fi'
'generic\u^_'
'TR^_'
'1.7'
'RF^_'
'Post_'
'rv'
'back\u^_'
'Units^_'
'indicates^_'
'ham'
'cont_'
'drive^_'
'notify\u^_'
'success\u^_'
'shortcuts_'
'ino'
'tk^_'
'activate^_'
'reduce_'
'free\u^_'
'nap'
'Gre'
'59'
'2022^_'
'Origin^_'
'Bs'
'asset_'
'adi'
'ticket^_'
'LC^_'
'Text'
'gettext_'
'CONF\u^_'
'rea'
'gi'
'209_'
'vel^_'
'gid_'
'CLI^_'
'space'
'cos'
'candidates_'
'ure_'
'space\u^_'
'Play^_'
'"></^_'
'ive'
'journal^_'
'RA^_'
'0.08'
'251_'
'hd^_'
'ea'
'DEVICE^_'
'Scan^_'
'2004^_'
'nor'
'"",^_'
'359'
'DT^_'
'ox^_'
'Package_'
'plan^_'
'H'
'Cost^_'
'rhs_'
'book\u^_'
'rip'
'MENT^_'
'062'
'urllib^_'
'under'
'Select_'
'861'
'addr'
'bb_'
'PR^_'
'macro^_'
'zf'
'dn^_'
'pyc'
'clear'
'ball^_'
'ode'
'om_'
'title'
'IA^_'
'CAT'
'Scroll^_'
'parent'
'regions_'
'155'
'deploy^_'
'encoder_'
''}'
'glo'
'fab'
'dm^_'
'algorithm_'
'391'
'person\u^_'
'206_'
'good\u^_'
'194_'
'minute_'
'ik^_'
'ALL\u^_'
'accepted^_'
'FU'
'SET'
'193'
'∅s'
'logo^_'
'LH^_'
'Mo'
'})'_'
'usually^_'
'HEADER^_'
'bus'
'Idx_'
'remove'
'saved\u^_'
']['
'MODE\u^_'
'kon'
'hol'
'fu'
'ram^_'
'Async^_'
'EMAIL\u^_'
'Mongo^_'
'DEFINE\u^_'
'Ci'
'++'
'disc'
'326'
'domains_'
'gi_'
'TRUE^_'
'gan'
'eff'
'Is_'
'Schedule^_'
'OPTIONS^_'
'":'
'HD^_'
'als^_'
'Loader^_'
'No_'
'tic'
'abs'
'hw'
'consumer^_'
'plat'
'modes_'
'Ctrl_'
'photo^_'
'|=_'
'optional_'
'logical\u^_'
'ux^_'
'TF^_'
'zz'
'geo^_'
'ect'
'ag_'
'exist_'
'ster'
'reduce^_'
'zen'
'INTER'
'curr^_'
'Op_'
'0xB'
'payment^_'
'ast'
'chan_'
'car'
'Traceback^_'
'Qt4_'
'039'
'1.9'
'Commit^_'
'usa'
'ordered^_'
'slo'
'Encoding^_'
'flow'
'196_'
'ty\u^_'
'CHECK'
'':'
'processes^_'
'bn^_'
'];^_'
'tions_'
'ssy'
'inner_'
'DEF'
'STATIC\u^_'
'1010'
'646'
'00'
'rr'
'Rect^_'
'gradient^_'
'{},^_'
'rng_'
'rid'
'output'
'Transform_'
'La'
'bv'
'Qi'
'Bea'
'flu'
'Year^_'
'bal'
'ini'
'secondary^_'
'())^_'
'1.5'
'jar^_'
'repr^_'
'HT'
'packets^_'
'cid_'
'0.04'
'AAA^_'
'history\u^_'
'pay'
'DOWN_'
'1002'
'library\u^_'
'ving^_'
'drop'
'NON'
'pen^_'
'destroy^_'
'Retrieve^_'
'vis'
'timer^_'
'nj'
'ON_'
'Browser^_'
'extend^_'
'pb_'
'contains_'
'gri'
'urllib\u^_'
'Std^_'
'bp_'
'noqa^_'
'Raster^_'
'yi'
'mutable^_'
'copyright_'
'$(^_'
'UP_'
'152'
'Direct^_'
'fullname_'
'RS^_'
'networks_'
'utility_'
'Registry^_'
'colors^_'
'1.4'
'udp^_'
'confirm^_'
'gv'
'dq'
'Pen'
'0.10'
'dest'
'wanted_'
'MN'
'character_'
'distance\u^_'
'jp'
'Cell_'
'xen'
'234_'
'face_'
'timezone^_'
'variant_'
'score'
'prog_'
'XS'
'timeout\u^_'
'=|'
'Vm^_'
'Split^_'
'053'
'exc'
'and'
':\u\u\uCARET\u\u\u^'
'cert'
'pub'
'Iterator\u^_'
'231'
'getting^_'
'jt'
'front^_'
'cal_'
'longer^_'
'coord^_'
'MAR'
'0x32'
'IL^_'
'754'
'Validate^_'
'aw'
'daemon_'
'zb'
'dip'
'uff^_'
'dimer^_'
'sel^_'
'John^_'
'fy^_'
'tid_'
'COR'
'Assert^_'
'assets^_'
'229_'
'ote'
'ATE'
'late'
'1110'
'212^_'
'Av'
'dep'
'Ci^_'
'query'
'TEXT_'
'pres'
'converter_'
'))'_'
'resolve^_'
'lhcb^_'
'nf'
'codename^_'
'sd_'
']]^_'
'OSI^_'
'sas'
'304'
'guest^_'
'art'
'Us'
'//'
'Prop^_'
'Sal'
'AF\u^_'
'KT'
'newt'
'ora'
'Box\u^_'
'LFN^_'
'Per'
'explicitly^_'
'asc'
'221_'
'173'
'scheduler^_'
'partial^_'
'gli'
'\u\u\uCARET\u\u\u\\'
'perf'
'Marker^_'
'DO^_'
'):\\^_'
'anchor_'
'Run_'
'CI^_'
'Live^_'
'ose'
'any'
'LL^_'
'yd'
'160^_'
'Depth^_'
'nb_'
'BF'
'term'
'issue\u^_'
'pyf'
'319'
'logged^_'
'circle^_'
'erc_'
'208_'
'402'
'song_'
'zm'
'Ol'
'157'
'overwrite^_'
'cand'
'DWORD_'
'lis'
'con'
'Section_'
'mimetypes_'
'ndb_'
'dns\u^_'
'eda'
'Syn'
'hope^_'
'LB'
'shutdown_'
'IMAGE\u^_'
'227_'
'preview^_'
'lob'
'an\u^_'
'Delta^_'
':.^_'
'362'
'isin'
'MIN'
'orig^_'
'Def_'
'quantity_'
'Ie^_'
'0x04'
'tor_'
'NL'
'Boolean_'
'emi'
'boot'
'"{}^_'
'blo'
'km'
'174'
'0.7_'
'obs'
'HSG^_'
'Rad'
'cells^_'
'flat^_'
'interpreter^_'
'plo'
'hl'
'density^_'
'(%(^_'
'xp_'
'day'
'VE'
'tweet_'
'sid^_'
'mom'
'Children_'
'qui'
'Errors_'
'np\u^_'
'([\u\u\uCARET\u\u\u'
'trace\u^_'
'four'
'Background^_'
'NET^_'
'Exec^_'
'0xFF'
's\u_'
'mt_'
'Complete^_'
'comp\u^_'
'attach^_'
'opcode_'
'dk'
'431'
'whole^_'
'focus^_'
'amp'
'vg'
'sticky_'
'ye'
'266'
'CL^_'
'SMI_'
'0.001_'
'An'
'wk'
'rain'
'defer_'
'Segment^_'
'SYS^_'
'builtins_'
'xy'
'}''
'rho_'
'conn^_'
'290'
'VB'
'omp'
'Hol'
'possible\u^_'
'stroke^_'
'alignment^_'
'now'
'642'
'335'
'hal'
'Person_'
'entities^_'
'ah^_'
'177'
'land'
'Tool_'
'182'
'018'
'pixels^_'
'1.2'
'Poly'
'Sin'
'dri'
'More^_'
'erm'
'WIN'
've\u^_'
'mus'
'hb'
'237_'
'checking^_'
'x'
'board\u^_'
'342'
'Secondary^_'
'ron'
'Tab_'
'SH'
'WE'
'Ky'
'same\u^_'
'+=^_'
'Sign^_'
'TAT'
'times'
'217_'
'clip_'
'stubs_'
'222^_'
'ew'
'lexer_'
'two'
'PER\u^_'
'Contents^_'
'acl_'
'topo'
'El^_'
'187_'
'KM'
'physical^_'
'\\)'
'case'
'0x11'
'Ids_'
'Old^_'
'comm_'
'lo_'
'368'
'Bluetooth^_'
'pfc^_'
'Interval_'
'gt_'
'186_'
'pes'
'news'
'Screen_'
'com_'
'143'
'gyp^_'
'pec_'
'wee'
'1d_'
'OO'
'Kernel^_'
'SIGNAL_'
'seen_'
'144'
'∅∅∅∅∅'
'pa_'
'tol_'
'Reply^_'
'Building^_'
'reversed_'
'F8_'
'Sla'
'Pacific^_'
'problems^_'
'ato'
'Ho'
'pow_'
'Sec^_'
'ba'
'292'
'228_'
'ler'
'adapt'
'act'
'Bz^_'
'important^_'
'"//^_'
'074'
'lim'
'lu^_'
'archive\u^_'
'it\u^_'
'checksum_'
'Counter^_'
'xt^_'
'une'
'terminal^_'
'031'
'SET\u^_'
'specifies^_'
'resize^_'
'nal'
'pk'
'Ben'
'207_'
'OI'
'rap'
'kill^_'
'ness_'
'Item\u^_'
'Pc'
'Constructor^_'
'uni'
'"="_'
'evaluation^_'
'coll'
'bar\u^_'
'pic'
'dyn'
'j\u^_'
'372'
'199_'
'DEFAULT_'
'aliases^_'
'Survey^_'
'244_'
'project'
'lj'
'AUTO'
'144_'
'PG^_'
''{}^_'
'JI'
'ci∅n^_'
'Single_'
'star'
'term\u^_'
'items\u^_'
'content'
'Wrong^_'
'av^_'
'"(('^_'
'0x17'
'441'
'UG'
'kal'
'nan'
'ddy'
'alarm^_'
'~~~~~~~~~~~~~~~^_'
'id\u_'
'bet'
'Zi^_'
'ji^_'
'proto\u^_'
'redis^_'
'Health^_'
'bug'
'/.^_'
'Over'
'song^_'
'sa'
'plural^_'
'feed'
'284'
''∅∅∅∅∅∅∅∅'_'
'curve_'
'Subject^_'
'185'
'Slot_'
'submit_'
'ies\u^_'
'203_'
'Air'
'nw'
'664'
'fn\u^_'
'Sys^_'
'erf'
'0.06'
'lss^_'
'wav^_'
'Arg_'
'392'
'trigger\u^_'
'publish_'
'303'
')'
'fri'
'expand^_'
'NET'
'Es'
'IMAGE^_'
'WG'
'Interrupt_'
'fails^_'
'Term^_'
'Character^_'
')*'
'opens'
'configure\u^_'
'Fu'
'sz_'
'language\u^_'
'Uni'
'minor^_'
'CY'
'1011'
'0.75_'
'pred\u^_'
'Success^_'
'RFC^_'
'srv\u^_'
'lid'
'yte'
'bac'
'Fs'
'echo_'
'213_'
'jam'
'unittest^_'
'Manage^_'
'locked^_'
'change'
'Listener^_'
'Net'
'hi_'
'313'
'passwd_'
'skin^_'
'147'
'208'
'404^_'
'ide^_'
'rating_'
'059'
'099'
'sur'
'ium^_'
'abr'
'RF'
'shi'
'1100'
'rotate^_'
'lengths_'
'bootstrap^_'
'EXP'
'ics^_'
'Ag'
'fixtures_'
'∅_'
'"../^_'
'mem\u^_'
'Lib_'
'US'
'Left_'
'pyqt^_'
'expand'
'b2_'
'ild'
'223_'
'mpo'
'geom^_'
'sor'
'Mouse^_'
'ACTION^_'
'∅o^_'
'mocked\u^_'
'kar'
'FORMAT^_'
'public_'
'Pix'
'course_'
'Spi'
'Repository^_'
'398'
'CHOICES_'
'GR'
'relationship_'
'unc_'
'neutron^_'
'pec'
'737'
'216'
'∅a^_'
'pid'
'50'
'indicating^_'
'aug'
'1.8'
'ght^_'
'Multiline_'
'warranty^_'
'water'
'funcs_'
'Exists_'
'Unsupported^_'
'woman^_'
'vid'
'chars^_'
'12345^_'
'charge^_'
''∅∅∅∅∅∅^_'
'wei'
'"+^_'
'latitude_'
'fake_'
'selector^_'
'maps_'
'"∅∅∅∅∅∅∅"_'
'mid^_'
'requirements_'
'1234_'
'codec^_'
'158'
'p0_'
'218_'
'cap'
'MI^_'
'flv^_'
'rather^_'
'County^_'
'actor^_'
'epsilon_'
'APPS_'
'125^_'
'nose_'
'ht^_'
'396'
'645'
'Arm'
'283'
'Sr'
'lect'
'Append^_'
'display'
'Pending^_'
'662'
'PH^_'
'242_'
'BD^_'
'Sym'
'Failure^_'
'rotation^_'
'Scale_'
'process'
'xu'
'hit_'
'moz'
'ana'
'/\u^_'
'OV'
'digit^_'
'064'
'ggy'
'coin'
'Distribution^_'
'border_'
'311'
'vbox_'
'643'
'replaced^_'
'eng^_'
'349'
'CN^_'
'ility^_'
'endpoint\u^_'
'ay_'
'Dot^_'
'dl_'
'DN'
'Feed^_'
'curl^_'
'sr_'
'assembly^_'
'226^_'
'\\'``^_'
'ado^_'
'ho^_'
'tl'
'sex'
'isc'
'Mor'
'clothing^_'
'ling'
'mobile^_'
'dark'
'Will^_'
'setting\u^_'
'Fla'
'348'
'239_'
'Requests^_'
'722_'
'obs\u^_'
'population^_'
'fraction^_'
'p'
'J'
'135_'
'231_'
'idx'
'Sc'
'when\u^_'
'209'
'MIN\u^_'
'NOT'
'ann'
'ght'
'ons'
'OR_'
'Expect^_'
'191_'
'JSON_'
'hard^_'
'ati'
'wb'
'Builder^_'
'brain'
'Tc'
'pd^_'
'temperature_'
'status'
'Surface^_'
'2.2'
'ASCII^_'
'ev^_'
'pytest^_'
'ceil_'
'common'
'185_'
'Encoder_'
'LT^_'
'Bitmap^_'
'404'
'toggle^_'
'uniform^_'
'226_'
'Share^_'
'twisted^_'
'nest'
'025'
'gr'
'312'
'Rt'
'454'
'esp'
'Account_'
'semi'
'a2'
'alternate^_'
'HOME^_'
'Ba'
'copyright\u\u_'
'Chrome^_'
'STYLE'
'mpl'
'guid_'
'297'
'272'
'plant'
'Kh'
'temporary^_'
'591'
'Ds'
'buff_'
'seg'
'bul'
'four^_'
'Pixel^_'
'Cou'
'\\*'
'Implemented_'
'About^_'
'358'
'058'
'0.05'
'tablename_'
'used\u^_'
'across^_'
'present_'
'Ch^_'
'spell'
'ane'
'egg^_'
'632'
'674'
'AR'
'Be'
'Labels_'
'br_'
'Agent_'
'yml^_'
'159'
'sic'
'fmt^_'
'ual^_'
'ipt'
'trans\u^_'
'WH'
'DATA'
'activity\u^_'
'ew^_'
'175_'
')(\\^_'
'ated^_'
'paragraph^_'
'Ignore^_'
'Hook^_'
'ite'
'lk'
'RN'
'conv'
'queries_'
'longitude_'
'queries^_'
'Same^_'
'124_'
''--'_'
'*('
'Reader^_'
'work_'
'0x1E'
'copies^_'
'probability^_'
'ks_'
'Chunk^_'
'dim\u^_'
'APP'
'unc'
'chem'
'361'
'quot^_'
'Snapshot^_'
'STA'
'197_'
'cab'
'authorization^_'
'Quote^_'
'241_'
'081'
'solution^_'
'uth'
'generation^_'
'irc^_'
'GD'
'JS'
'320'
'176_'
'deal'
'increment^_'
'filesystem^_'
'Screen^_'
'Literal_'
'Complex^_'
'rub'
'fall'
'Axis^_'
'").^_'
'Definition^_'
'epoch^_'
'HA^_'
'Panel^_'
'Fatal^_'
'TOOL'
'Problem^_'
'WR'
'406'
'Stock^_'
'ice^_'
'350'
'bed'
'LEA'
')/^_'
'Failure_'
'2p'
'Uniform^_'
'alert_'
'prompt^_'
'destination\u^_'
'builtins^_'
'deg^_'
'activate_'
'version'
'411'
'Front^_'
'0.09'
'Script_'
'console\u^_'
'kwds_'
'stub_'
'Added^_'
'tune'
'195_'
'My'
'Accessor\u^_'
'ler^_'
'0x12'
'\\')'
'interactive^_'
'Checking^_'
'MIME^_'
'ime_'
'Greater^_'
'252'
'erc'
'twi'
'PO^_'
'pon'
'obtain^_'
'creds_'
'Operations^_'
'trip'
'cou'
'Cursor^_'
'serialization_'
'Lfloat_'
'editable_'
'scenario^_'
'ypes_'
'Tags_'
'eig'
'sensor_'
'lan^_'
':{^_'
'236_'
'Backup^_'
'owner\u^_'
'bank^_'
'docstring^_'
'Mu^_'
'The'
'curlopt^_'
'balance_'
'hu^_'
'formula_'
'processes_'
'READ'
'rid_'
'compiled^_'
'stre'
'icons^_'
'VA^_'
'ers'
'CLIENT^_'
'153'
'inh'
'333'
'273'
'listed^_'
'ware'
'654'
'.</^_'
'328'
'ord^_'
'Chat^_'
'recon'
'alpha\u^_'
'lip'
'kr^_'
'Bri'
'dimension_'
'176'
'bc_'
'blob\u^_'
'lang\u^_'
'outer^_'
'charset_'
'Volume_'
'yg'
'Operator^_'
'tion'
'ted_'
'.*?'
'034'
'deg'
'spr'
'syntax_'
'lem'
'waiting^_'
'sensor\u^_'
'hen'
'NUMBER^_'
'Ds_'
'two_'
'0x2_'
'want_'
'pac'
'cw'
'78'
'dr^_'
'OW'
'iw'
'ii^_'
'fout_'
'TV'
'KO'
'ffff^_'
'749'
'Training^_'
'hx'
'Unless_'
'obs^_'
'Ge^_'
'bytes'
'Min_'
'092'
'inf'
'Io'
'debug'
'414'
'198_'
'4096_'
'NONE^_'
'316'
'246'
'.*'
'START^_'
'exc^_'
'188'
'ndi'
'GC^_'
'faces_'
'Paged^_'
'021'
'demo'
'google\u^_'
'673'
'area\u^_'
'no'
'233'
'lde'
'sk_'
'broadcast^_'
'yes'
'tring^_'
'gma'
'Sti'
'kn'
'ace'
'lw'
'return'
'0x03'
'specifying^_'
'Ve'
'037'
'atoms^_'
'iv^_'
'LA^_'
'pix'
'medium'
'exact^_'
'oslo\u^_'
'Pd'
'070'
'etag^_'
'Wh'
'kel'
'659'
'cover^_'
'184_'
'999_'
'bidi^_'
'km^_'
'docker\u^_'
'071'
'seq'
'import'
'DL^_'
'Rest^_'
'653'
'gx'
'Sp'
'users\u^_'
''{%^_'
'ovs'
'pointer_'
'WS^_'
'resulting^_'
'Cho'
'tb^_'
'pad'
'325'
'Assigns^_'
'logits_'
'lstrip_'
'libs_'
'boundary^_'
'sites_'
'opts^_'
':[^_'
'gene_'
'chain\u^_'
'078'
'schedule\u^_'
'TD'
'170_'
'cy_'
'Display_'
'dal'
'astro'
'oma'
'13.'
'249_'
'ach'
'cause^_'
'follow^_'
'jpeg^_'
'returning^_'
'normal\u^_'
'Extract^_'
'VP^_'
'190_'
'pj'
'vectors_'
'Hub^_'
'BG'
'cell'
'274'
'PAR'
'uti'
'succeed'
'Address\u^_'
'inventory_'
'sem'
'Shi'
'TABLE\u^_'
'theano_'
'note\u^_'
'ASN^_'
'disconnect_'
'a1'
'ben'
'hh'
'exactly^_'
'chi^_'
'simple_'
'checksum^_'
'220^_'
']+)'
'ia_'
'Ch'
'Matching^_'
'rsi'
'OF'
'ular^_'
'DV'
'Override^_'
'grp_'
'performance^_'
'species_'
'Vertical^_'
'kf'
'tex'
'mma'
'reload_'
'pref'
'currency_'
'course\u^_'
'move'
'mj'
'aws\u^_'
'pool'
'TOR'
'Para'
'zero'
'ctx^_'
'feat_'
'METHOD^_'
'13'
'forward\u^_'
'attach_'
'HP'
'evi'
'rg^_'
'permission\u^_'
'WWWWWWWWWWWWWWW^_'
'Capabilities^_'
'sudo_'
'starts^_'
'TA^_'
'shell'
'xn'
'242'
'407'
'dup'
'KS'
'---'
'cart'
'streams_'
'select'
'165_'
'rti'
'ima'
'proc\u^_'
'fy_'
'iri'
'331'
'fin_'
'*['
'proj_'
'languages_'
'*.\\^_'
'Article^_'
'076'
'Frequency^_'
'Call_'
'360'
'589'
'169'
'NG'
'2.1'
'Wr'
'flask\u^_'
'mer^_'
'season_'
'Serv'
'XX^_'
'Space_'
'nstr^_'
'Bridge^_'
'rat'
'canonical^_'
'393'
'nor^_'
'Physical^_'
'MSG\u^_'
'661'
'CL'
'die^_'
'/>'_'
'735'
'Kr'
'188_'
'Basetypes_'
'mot'
'dep\u^_'
'246_'
'sparse^_'
'license\u\u_'
'upper\u^_'
'hoo'
'geta'
'Engine_'
'∅t'
'intersect'
'140^_'
'acquire_'
'kle'
'notifications^_'
'extract'
'0.98'
'289'
'figsize_'
'BR^_'
'189'
'cluster'
'contained^_'
'Mod^_'
'262'
'dependency^_'
'pis'
'YE'
'p1'
'CAP'
'man_'
'basedir_'
'BACK'
'168'
'0xFC'
'transition^_'
'UA^_'
'ort_'
'partner^_'
'zl'
'things^_'
'dbc'
'tau^_'
'280'
'levels^_'
'rand'
'GPL^_'
'063'
'alpha'
'Sea'
''.*'
'Be^_'
'334'
'295'
'082'
'concat_'
'fib'
'(\\'
'Ad'
'1300'
'Internet^_'
'210^_'
'cen'
'swe'
'r'
'jar'
'applicable^_'
'Kl'
'ibm^_'
'twe'
'1012'
'0.11'
'032'
'square_'
'COUNT^_'
'RIGHT_'
'268'
'supported\u^_'
'287'
'Second^_'
'much^_'
'gol'
'Loading^_'
'nca'
'vn'
'900_'
'seg\u^_'
'fpath_'
'profiles_'
'LARGE^_'
'Qu^_'
'attrs^_'
'*\u\u^_'
'TC^_'
'FD^_'
'234'
'ENT'
'S3^_'
'COMP'
'finish^_'
'415'
'					^_'
'sizer_'
'Ck^_'
'runtime_'
'PROC^_'
'boxes_'
'Or'
'xpath\u^_'
'217'
'094'
'FONT'
'OVER'
'community^_'
'20140'
'WF'
'cap_'
'kin'
'sj'
'scalar_'
'functionality^_'
'application\u^_'
'neo'
'*(^_'
'Library_'
'cms^_'
'243_'
'gc^_'
'Sent^_'
'classifier_'
'779'
'hold^_'
'Append_'
'questions^_'
'ef_'
'Bot^_'
'399'
'nad'
'St^_'
'theme\u^_'
'011^_'
'022'
'nav'
'XI'
'ome'
'calendar_'
'material^_'
'ATA'
'<>'
'allowed_'
'Op'
'chu'
'getp'
'ZE'
'verb^_'
'Sum^_'
'level'
'Ai^_'
'de\u^_'
'arbitrary^_'
'rib'
'sensitive_'
'filtered^_'
'keys\u^_'
'Cl'
'colour_'
'void\u^_'
'ws\u^_'
'slot\u^_'
'graphics^_'
'PF^_'
'ide'
'Math^_'
'306'
'static'
'172'
'loc'
'665'
'quick'
'CURRENT^_'
'TR'
'∅"_'
'expe'
'lx'
'kk'
'css_'
'experiment\u^_'
'sit'
'la_'
'Failed_'
'aa_'
'kit^_'
'Bool_'
';&^_'
'gst'
'069'
'Exp^_'
'IV'
'ARM^_'
'Od'
'go\u^_'
'pickle^_'
'Game_'
'degree_'
'Shu'
'leaf^_'
'Green^_'
'INS'
'\u\\^_'
'ordering_'
'ado'
'Rate_'
'ascii\u^_'
'Apply^_'
'cor'
'backends_'
'adz^_'
'}('
'Average^_'
'salt_'
'vor'
'Duplicate^_'
'total'
'datasource'
'APP\u^_'
'rand^_'
'middle^_'
'DH'
'px'
'ACTION\u^_'
'315'
'ore^_'
'366'
'incorrect^_'
'Operation_'
'162'
'Namespace^_'
'remaining^_'
'sheet^_'
'Read'
'loc\u^_'
'173_'
'List\u^_'
'797'
'Sy'
'met'
'stim'
'sb^_'
'por^_'
'AK'
'Web'
'dic^_'
'cb\u^_'
'endpoints_'
'302'
'ai_'
'swap^_'
'retries_'
'412'
'olo'
'half^_'
'File'
'added_'
'posts_'
'fragment_'
'5000^_'
'ace_'
'vic'
'Header\u^_'
'have\u^_'
'admin'
'Hu^_'
'zipfile_'
'759'
'fra'
'WARRANTIES^_'
'value'
'GP^_'
'PU'
'templates\u^_'
'xg'
'Backend_'
'065'
'fragment^_'
'OR\u^_'
'wire'
'Fri'
'hardware^_'
'Ang'
'unt'
'OPTIONAL_'
'fixtures^_'
'16.'
'manager\u^_'
'accuracy^_'
'review\u^_'
'nco'
'executor_'
'olsr^_'
'ron^_'
'AG^_'
'751'
'nis^_'
'Statistics^_'
'fen'
'175'
'nter'
'nba'
'neighbors_'
'+\\'
'bounds^_'
'toc'
'600^_'
'DG'
'strip^_'
'serial\u^_'
'675'
'AGG'
'Safari^_'
'tis'
'iter\u\u_'
'migrate\u^_'
'upd'
'017^_'
'o'
'autos'
'rand\u^_'
''+'
'410'
'gl_'
'AL_'
'mapped^_'
'keys'
'BI'
'rw'
'delete'
'jid_'
'prepare^_'
'thumb^_'
'763'
'364'
'osp'
'computed^_'
'ume'
'libc'
'Indi'
'Check'
'degrees^_'
'win\u^_'
'hop^_'
'dt\u^_'
'tap'
'ida'
'palette_'
'odi'
'ier^_'
'mo_'
'OTHER^_'
'Def^_'
'MODEL_'
'2012_'
'band'
'disa'
'Mem^_'
'Post'
'vectors^_'
'pipeline\u^_'
'Pu'
'machine\u^_'
'1026'
'annotations^_'
'trap'
'tan^_'
'cnt'
'238'
'TION^_'
'tun'
'lot'
'mimetype_'
'program\u^_'
'CMD\u^_'
'candidate_'
'Ref'
'0x24'
'tok_'
'rho'
'jjy'
'417'
'yr'
'average_'
'193_'
'certain^_'
'yaml\u^_'
'update'
'tracker_'
'anything^_'
'667_'
'VM'
'1024'
'mic'
'note'
'ner^_'
'rs\u^_'
'Wl^_'
'That^_'
'tel'
'0x0000'
'068'
'pee'
'ond'
'imp_'
'17.'
'sig\u^_'
'combo^_'
'Ei^_'
'LM'
'ST_'
'036'
'0x1c_'
'refer^_'
'ecb^_'
'aq'
'rin'
'378'
'document'
'Prob'
'wu'
'Merge^_'
'ctl^_'
'experiment_'
'dark^_'
'Course^_'
'platform\u^_'
'EX'
'publish\u^_'
'drawing^_'
'book'
''(\\^_'
'="/^_'
'invs'
'bot\u^_'
'Get_'
'prod_'
'024'
'HL'
'BOT'
'0000000^_'
'uchar^_'
'VALUE_'
'minus^_'
'Prefix_'
'382'
'Music^_'
'stuff^_'
'install'
'bh'
'Ni^_'
'.*)'
'.)'
'listen^_'
'shows^_'
'ations^_'
'Sch'
'bis'
'cat\u^_'
'rad_'
'what_'
'good'
'dle'
'VAL^_'
'Functions^_'
'449'
'submission^_'
'tracks_'
'capture^_'
'ont'
'tool'
'black'
'cpu'
'vnd^_'
'address'
')."_'
'BLOCK^_'
'mai'
'179_'
'mention'
'recipient^_'
'Loop_'
'bw'
'Desc^_'
'GC'
']/^_'
'"\u\u\uCARET\u\u\u'
'tip^_'
'noise_'
'ded'
'eye'
'Ti^_'
'division^_'
'aco'
'windows_'
'""'
'Ms^_'
'pat'
'ave'
'stub\u^_'
'OB'
'authors^_'
'each\u^_'
'Processor^_'
'ask^_'
'Cc'
'freeze'
'Mail^_'
'pol'
'∅l'
'CPP'
'isn^_'
'181_'
'ray_'
'bility^_'
'083'
'156'
'rig'
'WP'
'rev'
'pyo'
'RH'
'proj^_'
'gun'
'Obs'
'073'
'warnings^_'
'ins^_'
'∅d'
'By'
'GT^_'
'corpus_'
'Blo'
'wait'
'development^_'
'cycle_'
'cad'
'Cp'
'swift^_'
'wsgi_'
'selection\u^_'
'iff^_'
'314'
'TB'
'capacity_'
']|^_'
'peri'
'323'
'Submit^_'
'act\u^_'
'012^_'
'Html^_'
'Processor_'
'desktop^_'
'separate^_'
'stick'
'hits^_'
'sing'
'INVALID^_'
'side'
'sep'
'TARGET^_'
'packet\u^_'
'ich'
'rack'
'lemma'
'episode\u^_'
'room\u^_'
'Pair^_'
'369'
'stm'
'ge\u^_'
'reb'
'Tip_'
'241'
'SM^_'
'TAC'
'ny_'
'Bel'
'Uc'
'mg^_'
'labels\u^_'
'095'
'Builtin_'
'387'
'050'
'Nat'
'Gen'
'END'
'linear\u^_'
'changed\u^_'
'dit'
'401'
'paper^_'
'408'
'green_'
'DOM^_'
'bz^_'
'arcpy_'
'redis\u^_'
'0.13'
'tta'
'joined^_'
'Lr^_'
'false_'
'cent'
'populated^_'
'Descriptor^_'
'zoom^_'
'\u{}'
'receiver_'
'://'_'
'%'_'
'matched^_'
'BM'
'logout^_'
'Language_'
'going^_'
'']'_'
'If_'
''.'
'v∅'
'instruction_'
'minute^_'
'425'
'Required_'
'symbol\u^_'
'cxx^_'
'Unicode_'
'379'
'245'
'261'
'aetools_'
'Events_'
'uta'
'bias^_'
'production^_'
'persist'
'pattern\u^_'
'240'
'ca\u^_'
'quest'
'0.12'
'bab'
'elect'
'Too^_'
'186'
'Color'
'VC^_'
'gpu_'
'annotation_'
'magic^_'
'kg'
'bit\u^_'
'rse'
'RL'
'Adds^_'
'order'
'453'
'freq\u^_'
'equal\u^_'
':`.^_'
'hooks_'
'i1_'
'versionadded^_'
'Desktop^_'
'hou'
'arm'
'Dl'
'332'
'hierarchy^_'
'RSA^_'
'creator^_'
'()``'
'iteration_'
'Mail'
'"}'
'encryption^_'
'arrays_'
'report'
'Rep'
'deriv'
'Alt'
'Temperature^_'
'ude'
'vel_'
'offsets_'
'Open_'
'launch^_'
'rpm^_'
'403'
'STEP'
'Log'
'023'
'git_'
'ead'
'wt^_'
'686^_'
'          _'
'7\u^_'
'Pur'
'range'
'far'
'455'
'SOL'
'presentation^_'
'Render'
'dead'
'nto'
'single_'
'Commands_'
'Comp'
'293'
'fromstring_'
'runner^_'
'attached^_'
'quit^_'
'Ep'
'creator_'
'434'
')}'
'Variables^_'
'opa'
'accounts_'
'Fs^_'
'dra'
'levelname^_'
'rho^_'
'dummy_'
'}"'
'tabs_'
'dur'
'cript^_'
'proper^_'
'RO^_'
'width\u^_'
'Less^_'
'bj_'
'308'
'my'
'enforce'
'layer'
'prov'
'mirror^_'
'collector_'
'277'
'18.'
'failed\u^_'
'tl_'
'INT_'
'Ps^_'
'ied^_'
'cte'
'`)^_'
'])'_'
'183'
'ify_'
' _'
'For'
'Direction^_'
'recv\u^_'
'Foo_'
'ski^_'
'lights'
'deserialize_'
'RG'
'Gy'
'Definition_'
'dbus_'
'l'
'Double_'
'May^_'
'lh^_'
'cleanup^_'
'Pat'
'2b'
'mount\u^_'
'AAC'
'SV'
'uint8_'
'pers'
'Hy'
'am_'
'Ul^_'
'ack_'
'abi'
'PVOID_'
'wy'
'ir\u^_'
'shape'
'227^_'
'enough^_'
'gens'
'svntest_'
'103^_'
'WM'
'positional^_'
'047'
'218'
'ROOT^_'
'ara'
'PASSWORD_'
'vec'
'WO'
'REST^_'
'PL^_'
'mes^_'
'Col'
'Bre'
'mv^_'
'1080^_'
'sp\u^_'
'0.14'
'fli'
'PACKET^_'
'tm^_'
'sym\u^_'
'Sk'
'sound^_'
'cing^_'
'control'
'stra'
'HB'
'kw'
'271'
'quo^_'
'Instruction_'
'\\"\\^_'
'sie'
'opener_'
'rect^_'
'spacing_'
'lr^_'
'\\]'
'SUCCESS_'
'Est'
'vertex_'
'BIG'
'subtitles_'
'REV'
'CSS^_'
'slots\u\u_'
'Super^_'
'End'
'smart'
'emo'
'ael'
'doctest^_'
'IG^_'
'Scope^_'
'265'
'ker^_'
'066'
'mappings_'
'idl'
'FOUR\u^_'
'fund'
'088'
'wg'
'workflow\u^_'
'ari'
'AY'
'urs'
'stage'
'uel'
'shutdown^_'
'ERR\u^_'
'sf_'
'cherrypy_'
'Creation^_'
'436'
'033'
'1256'
'5317^_'
'll\u^_'
'QE'
'ans^_'
'∅k'
'2013_'
'EST'
'089'
'heap'
'unpack\u^_'
'fit'
'Decode^_'
'markup_'
'decoder_'
'alt\u^_'
'Plot_'
'rl^_'
'aus'
'subject\u^_'
'187'
'hw^_'
'Pop'
'Ui_'
'logo'
'Horizontal^_'
'getter_'
'164'
'pyw'
'Loop^_'
'143_'
'rec\u^_'
'sup^_'
'imshow_'
'AAAA'
'asm^_'
'164_'
'Oc'
'322'
'pop\u^_'
'Me^_'
'tst'
'ilo'
'c2'
'2c'
'8.0_'
'310'
'containers^_'
'incoming^_'
'eci'
'station_'
'ST\u^_'
'305'
'epochs_'
'()``,^_'
'nbe'
'hex\u^_'
'ssw'
'∅∅∅∅∅∅∅∅∅∅∅∅∅∅^_'
'wraps_'
'rf_'
'quota^_'
'routes^_'
'egi'
'Int'
'header'
'idf'
'click'
'\u\u\uCARET\u\u\u\u'
'/)'
'Room^_'
'dp^_'
'DKMDT^_'
'433'
'Padding^_'
'phys'
'Wo'
'gauss'
'2.5_'
'One_'
'that_'
'nex'
'hel'
'Eu'
'samp'
'v1\u^_'
'wave^_'
'lag'
'dor'
'decorator^_'
'xmin_'
'View'
'was'
'Run'
'Ig'
'421'
'Worker^_'
'med'
'USE'
'Final^_'
'Oo'
'hre'
'green'
'';^_'
'epo'
'SOURCE^_'
'Cr'
'pym'
'age'
'merge'
'53'
'370'
'repos_'
'robot_'
'2.3'
'hot^_'
''&'_'
'several^_'
'Out'
'Ar^_'
':`'
'Ant'
'correct_'
'Empty_'
'CUR'
'084'
'GEN'
'tup_'
'NL^_'
'}'^_'
'column'
'zed^_'
'execution\u^_'
'controlled^_'
'CLIENT\u^_'
'0.35'
'ch\u^_'
'999^_'
'win32'
'decimal\u^_'
'nas'
'Del'
'168_'
'nda'
'probs_'
'stor'
'qc'
'Ht^_'
'guess_'
'care'
'make_'
'e-'
'Ken'
'TRANS'
'zar'
'052'
'SO^_'
'hf'
'degree^_'
'logic^_'
'ation\u^_'
'ssh_'
'aps'
'installation^_'
'Fin'
'king^_'
'AUTH^_'
'dif'
'cov_'
'dedent_'
'gat'
'161_'
'uint32_'
'partition\u^_'
'Errors^_'
'080'
'237'
'sip^_'
'entire^_'
'tle^_'
'TW'
'IB^_'
'ear'
'Xm'
'mis'
'Leg'
'LENGTH_'
'nj^_'
'dda'
'prior^_'
'train'
'estr'
'6.0_'
'major_'
'normpath_'
'action'
'any\u^_'
'Iteration_'
'Cond'
'435'
'mi_'
'lab'
'filepath^_'
'en\u^_'
'global'
'.''
''∅∅'
'overwrite_'
'Beta^_'
'Ber'
'jk'
'AV^_'
'e+00_'
'ener'
'but'
'PREFIX^_'
'178'
'band_'
'tru'
'ization^_'
'mw'
'Transport_'
'637'
'datasets^_'
'gateway_'
'Right_'
'accuracy_'
'Sha'
'Developers^_'
'prefs_'
'subtract'
'THE'
'1004'
'performed^_'
'libs'
'163'
'077'
'styles_'
'Pref'
'spin'
'cel'
'sync'
'2048_'
'139^_'
'REL'
'ago^_'
'Site_'
'constants^_'
'watch'
'zw'
'1024^_'
'Points^_'
'hil'
'ent\u^_'
'adv'
'scipy^_'
'round'
'OPEN'
'debugger^_'
'accel'
'rst'
'custom'
'2015_'
'curr_'
'les_'
'Ten'
'057'
'scanner_'
'uploaded^_'
'relation_'
'stan'
'Predict'
'027'
'bz'
'Xu^_'
'Pixmap_'
'Cli'
'dr_'
'ange_'
'fuzz'
'subst'
'isdigit_'
'libraries_'
'CALL'
'avoid^_'
'MODE_'
'IH^_'
'lines\u^_'
'let'
'ground^_'
'Period^_'
'258'
'nch'
'yo^_'
''\u\u\uCARET\u\u\u'
'2.0'
'YP'
'heck'
'dm_'
'243'
'NAMES_'
'phone_'
'seen^_'
'Requested^_'
'multi_'
'lc_'
'esc'
'xmax_'
'They^_'
'leading^_'
'started_'
'eta_'
'Username^_'
'fig'
'sap'
'obo'
'edge'
'+)('
'Desc_'
'736'
'Vr'
'Mari'
'EVENT\u^_'
'quiet_'
'\\('
'Ts^_'
'ims'
';/^_'
'MIS'
'1003'
'SAM'
'440'
'184'
'SN^_'
''{\\\\^_'
'namespace\u^_'
'105^_'
'wav'
'Her'
'q'
'seg_'
'189_'
'fer'
'adds^_'
'lement'
'album_'
'Ev'
'followed^_'
'mya'
'UI_'
'gn'
'containers_'
'qn'
'interrupt'
'HER'
'ascii_'
'Photo^_'
'451'
'203^_'
'Material^_'
'sentence^_'
'Working^_'
'00002'
'ment'
'precedence^_'
'OR'
'Only_'
'movie_'
''['_'
'Water^_'
'peak^_'
'Plugins^_'
'REG\u^_'
'ph_'
'easy'
'Slug^_'
'WEB'
'250'
'1089'
'439'
'236'
'manage'
'lb_'
'244'
'hits_'
'authors_'
'vac'
'*?'
'Gamma^_'
'1171'
'legend^_'
'SERVICE^_'
'air^_'
'lass_'
'normalized^_'
'038'
'shown^_'
'attach\u^_'
'ri_'
'KL'
'Res^_'
'0.20'
'://%^_'
'soc'
'194^_'
'ke_'
'Cat'
'statistics_'
'Roll'
'Archive^_'
'information_'
'(.'
'ese^_'
'It'
'DEST'
'workflow_'
'179'
'definitions_'
'solid^_'
'sequences_'
'fv^_'
'Ins'
'416'
'vote^_'
'Alarm^_'
'smb'
'images\u^_'
'lig'
'cond^_'
'Sto'
'Helper\u^_'
'249'
'assign\u^_'
'new\u\u_'
'445'
'tha'
'sessions_'
'rot'
'misc^_'
'GAT'
'INVALID\u^_'
'inst\u^_'
'+)^_'
'345'
'420'
'live'
'vas'
'gge'
'1257'
'ein'
'realm_'
'385'
'Bl'
'SL^_'
'MDST^_'
'difference_'
'*)('
'248'
'ips^_'
'poly_'
'Bas'
'{'_'
'plural_'
'mdst^_'
'126_'
'pdf'
'097'
'183_'
'ic\u^_'
'los^_'
'327'
'abcd^_'
'`\\^_'
'import\u\u_'
'todo^_'
'1111'
'bhadron^_'
'director'
'0.21'
'asm'
'BHADRON^_'
'Streams^_'
'beam_'
'sha1_'
'break'
'jun'
'calc_'
'Shell_'
'ish'
'availability^_'
'Fetch^_'
'182_'
'1027'
'points\u^_'
'Vol'
'448'
'design^_'
'identity\u^_'
'fst'
'1020'
'az^_'
'impl'
'IME'
'Guangdong^_'
'visit_'
'rdi'
'ax2_'
'bq'
'Movie^_'
'profiles^_'
'Rh'
'rge'
'ow^_'
'104^_'
'a∅'
'resolve_'
'hor'
'1122'
'0002'
'446'
'few^_'
'OUTPUT\u^_'
'Cra'
'ZW^_'
'Cm'
'228^_'
'mk^_'
'recipe^_'
'ain'
'Mobile^_'
'Camera^_'
'163_'
'close'
'ound^_'
'patterns^_'
'djangoproject^_'
'subset^_'
'Prop'
'381'
'174_'
'XL'
'ddi'
'tags\u^_'
''%'_'
'ctrl^_'
'Test'
'atom'
'ENGINE^_'
'211^_'
'grep^_'
'backs'
'until\u^_'
'*"'
'389'
'RET'
'?:'
'COL'
'419'
'tau'
'<<^_'
'Fm'
'modified\u^_'
'pending\u^_'
'blueprint_'
'KHTML^_'
'Time'
'ua_'
'placeholder^_'
'LOCK^_'
'subparsers_'
'South^_'
'"**'
'}{'
'cop'
'*/'
'085'
'dependent^_'
'chr'
'ute'
'alg'
'BEGIN^_'
'FLA'
'276'
'ition'
'hl^_'
'∅i^_'
'New'
'btn\u^_'
'texture^_'
'collect\u^_'
'inventory^_'
'implements^_'
'face\u^_'
'Report_'
'Enc'
'una^_'
'Dev^_'
'rot_'
'Domain_'
'sca'
'Amazon^_'
'wikipedia^_'
'density_'
'apr'
'lst'
'wind^_'
'MULTI'
'Sim'
'enums_'
'ush'
'ick'
'ping_'
'GEO'
'canvas^_'
'COLUMN^_'
'listing^_'
'mail\u^_'
'HR'
'cuttest_'
'smi'
'pixels_'
'Logging^_'
'291'
'mono'
'dct_'
'WARNING_'
'Peek^_'
'#\\^_'
'165'
'.*?)'
'tran'
'1188'
'une^_'
'ala'
'PN'
'ERR^_'
'CAR'
'hard'
'noa'
'TH^_'
'RE\u^_'
'Original^_'
'providers_'
'dictionaries^_'
'QV^_'
'm3u8\u^_'
'eol'
'maximum_'
'uu'
'611_'
'requires\u^_'
'ian_'
'1301'
'x1'
'SERVICE\u^_'
'NOTE^_'
'chrom'
'xin'
'456^_'
'need\u^_'
'patch'
'Bit_'
'035'
'each_'
'Phase^_'
'goal_'
'rans'
'Flu'
'1070'
'LS^_'
'Contains^_'
'mse'
'049'
'087'
'700_'
'028'
'172_'
'avail'
'sparse\u^_'
'fq'
'1074'
'Man^_'
'percentage^_'
'ess'
'TAG'
'([[^_'
'0.18'
'IGNORECASE_'
'measurement^_'
'KD'
'Wk'
'ugettext\u^_'
'1006'
'XT'
'indexes^_'
'093'
'vocab_'
''{'_'
'unused^_'
'\\''_'
'Rows_'
'056'
'->'
'produce^_'
'cta'
'NB'
'Updated^_'
'Comm'
'flat'
'STE'
'Forward^_'
'get'
'Sound^_'
'Arr^_'
'um'
'EM^_'
'consumer\u^_'
'309'
'books^_'
'SPA'
'fault'
'121^_'
'urljoin_'
'flo'
'integration^_'
'Rp'
'datas'
'ung^_'
'tac'
'DIM'
'pla'
'wind'
'Renderer^_'
'aff'
'260'
'ov^_'
'MR'
'Build_'
':)'
'nts_'
'accept\u^_'
'Graphics^_'
'loo'
'ddd^_'
'rein'
'solve_'
'f1'
'RM^_'
'GROUP\u^_'
'sl_'
'begin\u^_'
'456'
'tat'
'ability^_'
'USB^_'
'Print_'
'ENT^_'
'054'
'stdin^_'
'1212'
'subdir_'
'dom'
'wave'
'life'
'desc'
'av_'
'254'
'directory\u^_'
'enc_'
'Condition_'
'LO^_'
'nid'
'sho'
'clients^_'
']+)'_'
'221^_'
'3.2'
'452'
'forum^_'
'reader^_'
'lar^_'
'trying^_'
'Union_'
'Calc^_'
'ndo'
')(?'
'hp_'
'cut_'
'THREAD'
'visit^_'
'eta^_'
'secure^_'
'051'
'ses^_'
'soft'
'FAIL_'
'Self^_'
'VN'
'sprite_'
'CHA'
'115^_'
'cover'
'nearest^_'
'169_'
'14.'
'321'
'}</^_'
'bow'
'Cross^_'
'RX^_'
'bindings_'
'ansi'
'1162'
'nge'
'DX'
'lai'
'ete'
''*'
'our'
'BUILD'
'assemble'
'TAG\u^_'
'383'
'223^_'
'tco'
'Alert^_'
'reload^_'
'jw'
'132_'
'320_'
'Pres'
'bm^_'
'TTT'
'vh'
'PASS'
']]'
'Gm'
'calculated^_'
'166_'
'dsr^_'
'1176'
'gon'
'userid_'
'routing^_'
'wea'
'tick^_'
'template'
'sle'
'pause^_'
'uw'
'initialized^_'
''],^_'
'Endpoint^_'
'comp'
'ule'
'disco'
'239'
't1'
'ette'
'388'
'reads_'
'275'
'uch'
'JO'
'matcher_'
'xpr'
'FAILED^_'
'0x001'
'lock'
'MON'
'Mark'
'chart_'
'PM^_'
'mocker_'
'DEN'
'month\u^_'
'define\u^_'
'conn'
'Negative^_'
'WX'
'measure^_'
'i∅'
'Ker'
'Secret^_'
'dli'
'Stretch_'
'cis'
'hum'
'1073'
'caller^_'
'251'
'student^_'
'nis'
'lp_'
'clusters^_'
'Sum_'
'FRAME^_'
'scores^_'
'Central^_'
'son_'
'Yin^_'
'arch'
'NAT'
'margin_'
'disp'
'20150'
'>>'
'limits^_'
'prediction^_'
'boot\u^_'
'clip\u^_'
'material_'
'bea'
'Fre'
'PLAY'
'endi'
'178_'
'analysis\u^_'
'best'
'htm^_'
'dz'
'AW'
'YM'
'Inf'
'Dis'
'sn^_'
'AH^_'
'LN'
'basic_'
'247'
'matplotlib^_'
'350_'
'Jie^_'
'WORK'
'guess^_'
'Bg^_'
'0.33'
'Reason^_'
'anc'
'}$'
'outf'
'Pages^_'
'daemon^_'
'special\u^_'
'year\u^_'
':]'
'ad\u^_'
'046'
'"#"_'
':\\'
'push'
'1187'
'HB^_'
'Recv^_'
']*)'
'iterations^_'
'∅s^_'
'112^_'
'Timeout_'
'hbox_'
'0.00000000'
'testdir_'
'767'
'yf'
'spe'
'cursor\u^_'
'Change_'
'tea'
'Ass'
'union^_'
'subset_'
'$\\^_'
'co\u^_'
'vu'
'resp'
'423'
'PRI'
'048'
'Constants_'
'004^_'
'orn'
'ise^_'
'SECRET\u^_'
'Office^_'
'Fan'
'alle'
'swap'
'Qo^_'
'1007'
'question\u^_'
'ttk_'
'flex'
'dialect_'
'079'
'vlan\u^_'
'files'
'Ai'
'msrest_'
'              _'
'ce\u^_'
'352'
'ship^_'
'Ns'
').'
'Call'
'442'
'148_'
'mad'
'%%'
'1083'
'MARK'
'0x16'
'171_'
'CONTEXT^_'
'succ'
'leave^_'
'stable^_'
'regex\u^_'
'Que'
'textwrap_'
'tly^_'
'newline_'
'NX'
'tau_'
'van'
'lee'
'to'
'344'
'foo'
'math\u^_'
'b∅'
'Linked^_'
'article\u^_'
'Doc_'
'genome^_'
'ging^_'
'filled^_'
'jj'
'Shelter^_'
'his^_'
'ma'
'when_'
'Inc'
'213^_'
'ey_'
'GO^_'
'law^_'
'0.001'
'quit'
'Ns^_'
'HN'
'itemlist_'
'wx'
'Su^_'
'Bur'
'KIND^_'
'XP'
'basis^_'
'Cas'
')"'
'gather'
'mun'
'complex_'
'replication^_'
'broken^_'
'migration^_'
'las^_'
'properly^_'
'over_'
'ier'
'iu'
'195^_'
'055'
'completion^_'
'029'
'Db'
'crypt'
'rock'
'LOCK'
'Constraint^_'
'nsta'
'Ph'
'1231'
'TMP'
'cog'
'ual'
'extent_'
'Conf^_'
'option'
'0.17'
'0.00000'
'module\u\u_'
'Vd'
'DOWN^_'
'Sql^_'
'slots_'
'Un^_'
'micros'
'render'
'nle'
'ada^_'
'A2'
'Ng'
'|('
'tok'
'fh'
'geo\u^_'
'{\\\\^_'
'Structure^_'
'mq'
'i18n_'
'easy^_'
'request'
'fon'
'ray^_'
'strict_'
'flux^_'
'resolver_'
'\u\u\uCARET\u\u\u{'
'gradient_'
'SPI'
'CCA'
'279'
'caption^_'
'neg'
'RIGHT^_'
'Objects_'
'STATUS_'
'delta'
'virtual'
'rra'
'lh'
'login'
'credit'
'015^_'
'234^_'
'131_'
'(:^_'
'brick'
'XD'
'Qos^_'
'background\u^_'
'floor^_'
'tablename\u\u_'
'ttr'
'len\u\u_'
'lat\u^_'
'IST'
'ory^_'
'nm_'
'Registry_'
'ther'
'Point'
'gid^_'
'readonly_'
'managed^_'
'partial\u^_'
'HEIGHT_'
'"?"_'
'ticks_'
'dee'
'===^_'
'rent'
'Mbps^_'
'())'
'lco'
'scatter_'
'ub_'
'road'
'lac'
'irs'
'ega'
'ster^_'
'mir'
'BUILD^_'
'0.16'
'mtime_'
'KN'
'644'
'ession'
'bec'
'geo_'
'ost'
'162_'
'ken'
'Family^_'
'onf'
'Pipeline^_'
'MG^_'
'p∅'
'wins'
'contest'
'Score_'
'keypair'
'2014_'
'Ia'
'SK'
'projection^_'
'hs^_'
'hint^_'
'gro'
'Mal'
'Fix^_'
'w'
'asp'
'balance^_'
'flavor\u^_'
'133_'
'orb'
'EB^_'
'MESSAGE^_'
'145_'
'CACHE^_'
'xyz_'
'addition^_'
'googleapis^_'
'handled^_'
'Spo'
'167'
'Chain^_'
'kill_'
'country\u^_'
'Medium^_'
'Mem'
'shell\u^_'
'ppe'
'join'
'appear^_'
'Part_'
'NV_'
'element'
'price\u^_'
'TL'
'scan'
's'
'Subnet^_'
'026'
'bee'
'264^_'
'other'
'Card_'
'Lower^_'
'regions^_'
'prepare_'
'd2'
'MEM'
'References^_'
'with'
'agents_'
'ibi'
'Col^_'
'grad'
'extra'
'Finished^_'
'unk'
'caller_'
'1008'
'sc'
'slave^_'
'diag_'
'2a'
'asctime^_'
'vat'
'gettext\u^_'
'016^_'
'Wimax^_'
'II'
'flash^_'
'message'
'COM'
'Int8_'
'slice'
'median_'
'bracket'
'border\u^_'
'Hui^_'
'printer_'
'class\u_'
'1258'
'builds^_'
'valid'
'ket'
'ves^_'
'tol'
'ie_'
'letters_'
'346'
'atz^_'
'mys'
'tli'
'"|"_'
'pot^_'
'122^_'
'Zh'
'defining^_'
'consts_'
'Pal'
'lw_'
'GGC'
'until_'
'SPEC'
'100000_'
'velocity^_'
'Timestamp_'
'lab_'
'Classifier_'
'Pack^_'
'sbox_'
'releases^_'
'Gradient^_'
'1234'
'285'
'bill'
'Tw'
'gem'
'REGEX_'
'HC'
'005^_'
'Don^_'
'resp^_'
'illa'
'fee'
'scs'
'median^_'
'osi'
'har^_'
'fields\u_'
'108^_'
'had^_'
'\u\u()``,^_'
'Mask_'
'253'
'titles_'
'beginning^_'
'apple^_'
'initialization^_'
'AH'
'Configure^_'
'ab_'
'meaning^_'
'tive^_'
''\\\\'
'041^_'
'Mag'
'sweep'
'({})'
'\\\\\\^_'
'beam^_'
'lista'
'mps'
'listener^_'
'wor'
'\\\\"'
'inds_'
'capture_'
'passe'
'proj\u^_'
'58'
'sentinel_'
'AU^_'
'?,^_'
'OU'
'streams^_'
'Resp'
'pdb_'
'processor^_'
'dynamic\u^_'
'Pointer_'
')))'
'me\u^_'
'qual'
'inc'
'Lsizei_'
'here_'
'">\\^_'
'375'
'Pin'
'Gaussian^_'
'tenant_'
'\u*'
'INSTALLED\u^_'
'classification^_'
'380'
'pem^_'
'spider'
'167_'
'Xc'
'qo'
'co'
'∅e'
'394'
'nik'
'Uns'
'iframe^_'
'NORMAL_'
'ENC'
'using_'
'631'
'nod'
'298'
'Lv^_'
'263'
'\\":^_'
'%}'_'
'812'
'UAL'
'Dia'
'prot'
'Ma^_'
'FN'
'pixel\u^_'
'Here^_'
'Sl'
'tain'
'once_'
'1080'
'oy'
'1310'
'D1'
'star_'
'Mid'
'nte^_'
'xw'
'rx_'
'mpd'
'1135'
'initial'
'contextlib_'
'YD'
'397'
'060'
'ici'
'Se^_'
'bou'
'beat'
'eur'
'Resolution^_'
'follows^_'
'final'
'mkdir^_'
'deg_'
'received_'
'Seq_'
'b2'
'cmdline_'
'lus'
'cfg'
'48'
'solr^_'
']('
'nie'
'Sur'
'ac'
'Ax^_'
'average\u^_'
'804'
'426'
'free_'
'button'
'Features^_'
'Ak'
'home'
'perms_'
'GS^_'
'logout_'
'caption_'
'READ\u^_'
'tim'
'Center_'
'qq^_'
'trait^_'
'light_'
'systems^_'
'St'
'204^_'
'Len'
'HEADER_'
'hparams_'
'ings_'
'TCA'
'537^_'
'mine'
'\\'"'
''."_'
'Zi'
'∅∅∅∅∅∅∅'_'
'nom'
'ask'
'snap'
'ense'
'ntpath^_'
'central^_'
'stock\u^_'
'CAC'
'dma'
'Env^_'
'cue'
'cio'
'From_'
'apt^_'
''|'
'gn^_'
'say_'
'describe\u^_'
'boto_'
'061'
'Nd'
'ti_'
'20.'
'facts_'
'pil'
'critical_'
'center'
'Create_'
'yields^_'
'hand_'
'gla'
'INT'
'arrow'
'bot'
'mess'
'Mg'
'086'
'switch'
'hint_'
'278'
'gas'
'\\/^_'
'irc'
'."'
''@'
'thes'
'predict\u^_'
'sno'
'APP^_'
'headers\u^_'
'gle'
'deployment\u^_'
'interpret'
'SAMPLE'
'LDAP^_'
'MAC'
'Cn^_'
'Scalar^_'
'tid'
'buf'
'getattr\u\u_'
'P'
'topics_'
'130^_'
'fill'
'asin'
'euc^_'
'strategy^_'
'tem'
'mina'
');'_'
''\u\u\uCARET\u\u\u\'
'se\u^_'
'Gu^_'
'409'
'vd^_'
'combo_'
'qb'
'topics^_'
'cru'
'1082'
'guess\u^_'
'LANG'
'ha'
'edo'
'logic_'
'das'
'processed\u^_'
'zn'
'LF'
'kw^_'
'poll^_'
'hook'
'Sheet_'
'Kar'
'atten'
'locator_'
'xi_'
'OUT_'
'repl'
'VR'
'Gar'
'457'
'=[^_'
'rms'
'Mil'
'perc'
'0.50'
'Neighbor^_'
'Bro'
'0xff_'
'skin'
'cinder^_'
'Photo'
'BS^_'
'npo'
'Qian^_'
'1076'
'''^_'
'stop'
'determined^_'
'cce'
'EXISTS^_'
'oct'
'isnan_'
'og_'
'client'
'338'
'153_'
''\u\u\uCARET\u\u\u$'
'nes'
'iro'
'getitem^_'
'prediction_'
'rli'
'activation^_'
'ward^_'
'SSI^_'
'bbox\u^_'
'zr'
'ous'
'EU^_'
'Router^_'
'positive\u^_'
'1.1_'
'focus_'
'Val^_'
'/-'
'Mc^_'
'Ss'
'Ids^_'
':<^_'
'GE'
'filenames^_'
'EL^_'
'ola'
'ric'
'Currently^_'
'let_'
'crawl'
'438'
'players^_'
'177_'
'Slo'
'zz^_'
'iva'
'conversation'
'package'
'Editor_'
'ative^_'
'modify\u^_'
'eme'
'inc\u^_'
'sparse_'
'`"_'
'Bucket^_'
'pend'
'pat_'
'reported^_'
'groupby_'
'RH^_'
'Deprecation^_'
'0xF9'
'google'
'Stri'
'orm'
'White^_'
'pye'
'song\u^_'
'tester^_'
'405'
'DER'
'accessor^_'
'Tr'
'noe'
'Char'
'teste'
'disk'
'indexed^_'
'audio'
'Art'
'ag'
'ral'
'BUFFER^_'
'depending^_'
'sis'
'337'
'MAX_'
'nota'
'ik'
'Expr_'
'Qu'
'vert'
'1201'
'quad'
'Transaction_'
'CACHE\u^_'
'pst'
'cont'
'runs_'
'toolbar_'
'collect^_'
'SW'
'Ham'
'identifiers^_'
'angle\u^_'
'0.22'
'Sci'
'Selector^_'
'CLI'
'sda^_'
'inv\u^_'
'1280'
'events\u^_'
'quiet^_'
'GUID^_'
'281'
'TEST'
'DR^_'
'cmp'
'e2'
'Listener_'
'670'
'rep^_'
'1015'
'guide^_'
'us\u^_'
'Destroy^_'
'Lan'
'vtk^_'
'she'
'2016_'
'proto'
'membership^_'
'touch'
'spin^_'
'gua'
'care^_'
'+/'
'Android^_'
'=/^_'
'4._'
'qe'
'dirpath_'
'sample'
'NU'
'Intel^_'
'detect^_'
'0.96'
'Angle^_'
'=('
'pod'
'Work'
'gobject_'
'NODE^_'
'1159'
'Cl^_'
'0.30'
'mf_'
'fco'
'encoded_'
'MPL'
'panda'
'Ex'
'3000_'
'aut'
'tempdir_'
'nam'
'rit'
'tem^_'
'ols^_'
'Nic'
'Spare^_'
'Bind^_'
'∅∅∅∅∅∅'
'combined^_'
'1023'
'cutoff_'
'coord\u^_'
'ange'
'SOCK\u^_'
'ffe'
'Pf'
'catch^_'
'unt_'
'oin'
'347'
'nst'
'augment'
'∅e^_'
'submit\u^_'
'setp'
'Lb'
'BW^_'
'pow^_'
'Zhu^_'
'MAX'
'deploy\u^_'
'9000'
'356'
'marc'
'>.'
'preference^_'
'Wd'
'Mul'
'gz'
'bas'
'invoice^_'
'manually^_'
'mple'
'nts^_'
'parm'
'hero'
'2.4'
'intended^_'
'ABLE^_'
'8617'
'ordered\u^_'
'1013'
'AQ'
'dog^_'
'nv^_'
'BL^_'
'ww'
'VAL'
'ffi'
'CONNECT'
'Xa'
'1121'
'Ct'
'BAR'
'optim'
'Slot^_'
'EXPAND_'
'OO^_'
'unknown\u^_'
'moo'
'15.'
'uh'
'"|'
'":['
'fft'
'1050'
'8000^_'
')]^_'
'384'
'making^_'
'sigma\u^_'
'626'
'DOTALL_'
'help'
'Map'
'recommended^_'
'377'
'363'
'warn^_'
'instruction^_'
'best_'
'mb_'
'000000000^_'
'.1_'
'odo'
'1.2_'
'Statement^_'
'nk_'
'mat\u^_'
'ika'
'Auth_'
'WD'
'Tools_'
'BAR^_'
'capture\u^_'
'Impl_'
'Modify^_'
'fw'
'75'
'1009'
'Vert'
'136_'
'dbp'
'Adapter_'
'ld_'
'lle'
'/><^_'
'critical^_'
'eo^_'
'audio_'
'assign'
'16843'
'vertex\u^_'
'alive_'
'Yu'
'ivi'
'zation^_'
'Queue'
'Resolver^_'
'mouse\u^_'
'DESC_'
'CON'
'away^_'
'social^_'
'SK^_'
'VD'
'Qa'
'').^_'
'cx'
'perm'
'Guest^_'
'1140'
'constraints^_'
'wn^_'
'Fan^_'
'269'
'getpass_'
'ES\u^_'
'ege'
'[\u\u\uCARET\u\u\u\'
'embed_'
'hashes_'
'unt^_'
'109^_'
'cie'
'1014'
'294'
'EVENTOUT^_'
'sf^_'
'Std'
'473'
'Ii'
'News^_'
'LE_'
'Hs'
'oint'
'pose_'
'Ca^_'
'Def'
'Att'
'REFERENCE\u^_'
'Tar'
'Polygon^_'
'Disconnect^_'
'tcl'
'ep\u^_'
'describe^_'
'318'
'transaction\u^_'
'nx^_'
'pw^_'
'restore\u^_'
'.*'_'
'B2'
'154^_'
'sent\u^_'
'Hold'
'plate'
'advanced^_'
'feedback_'
'readable^_'
'bam^_'
'"()"_'
'pytz_'
'NULL_'
'REN'
'PATH\u^_'
'house^_'
'bl^_'
'336'
'1112'
'371'
'um\u^_'
'OT^_'
'shadow'
'collect_'
'normalize^_'
'geos'
'finger'
'public'
'literals^_'
'orders_'
'letters^_'
'"('^_'
'Org^_'
'FEATURE'
'ET\u^_'
'grids'
'SCALE'
'REST'
'="%(^_'
'union_'
'notification\u^_'
'iloc_'
'cac'
'trie'
'doi'
'deco'
'idle^_'
'Interfaces^_'
'swf^_'
'osa'
'sms^_'
'Mes'
'inva'
')?^_'
'Ensure^_'
'159_'
'disabled_'
'cmp^_'
'ono'
'utility^_'
'recursive_'
'zeros^_'
'/{}'
'QI'
'subm'
'MATCH'
'Gh'
'boo'
'Updates^_'
'PART'
'156_'
'1030'
'667'
'fx'
'try'
'V2_'
'SHO'
'PY^_'
'do'
'),'
'dba'
'ump'
'Welcome^_'
'sections^_'
'snp'
'Issue^_'
'als_'
'writerow_'
'period\u^_'
'QH^_'
'Allocation^_'
'Ada'
'1103'
'Pygments^_'
'rw^_'
'ria'
'Exceptions^_'
'3.3'
'tokenize_'
'Class'
'ong'
'iterate'
'hue'
'datatype_'
'#"_'
'Password_'
'CONT'
'bon'
'uff'
'fort'
'Algorithm^_'
'1084'
'tho'
'eca'
'cookie'
'TAR'
'conflict'
'Product_'
'mit^_'
'SF^_'
'[['
':('
'ava'
'authenticated_'
'240^_'
'Me'
'snmp^_'
'INET_'
'ARB_'
'2e'
'0x2c'
'0x1D4'
'zione^_'
'447'
'1087'
'UID^_'
'Et'
'hyp'
'keymap\u^_'
'vet'
'eck'
'IMA'
'Dp'
'dice'
'log10_'
'detail\u^_'
'Specifies^_'
'exchange^_'
'dag'
'ail'
'ker_'
'Ea'
'En^_'
'2s'
'481'
'0x1D5'
'peer_'
'Gui'
'PV'
'big_'
'REPO'
'CTC'
'failures_'
'Of_'
'144^_'
'qual^_'
'rp_'
'DOMAIN_'
'tracks^_'
'painter_'
'blue_'
'Nor'
'ox'
'GGG'
'CISCO^_'
'tmpl_'
'eager'
'0x13'
'MV'
')"^_'
'domains^_'
'1079'
'??'
'px_'
'capabilities^_'
'cx_'
'SEND'
'live\u^_'
'jl'
'asa'
'xbmcgui_'
'zoom_'
'pos1_'
'INE'
'CLASS^_'
'C1'
'ions\u^_'
'Sil'
'FAIL^_'
'DN^_'
'1999^_'
's1'
'Div'
'VERSION\u^_'
'Install'
'added\u^_'
'binascii_'
'ark'
'underlying^_'
'Una'
'ncurses^_'
'vocab\u^_'
'loaded_'
'Le^_'
'Gl^_'
'PRESS^_'
'nv_'
'ase_'
'>]'
'serie'
'1005'
'med^_'
'lv'
'Sd'
'FILES_'
'formula^_'
'nets'
'immutable^_'
'Lo^_'
'+?'
'visibility^_'
'1223'
'Cal'
'Pop^_'
'ine_'
'365'
'vi'
'wd^_'
'hot'
'YU'
'asd'
'Ac^_'
'<%^_'
'SELECT'
'ere^_'
'Construct^_'
'Completion^_'
'traj'
'getu'
'1123'
'velocity_'
'ranges^_'
'Tru'
'learn'
'lun'
'ABS'
're'
'installed_'
'mock'
'bur'
'tut'
'determine\u^_'
'"{}'
'fw_'
'coder'
'ify^_'
'attachment_'
'nes^_'
'Sahana^_'
'ALT'
'chrom_'
'esse'
'coord'
'cnv\u^_'
'extras_'
'Np'
'Qt5_'
'JE'
'LIC'
'avi'
'zd'
'25.'
'virt'
'CARET\u\u\u'
'rop'
'place'
'owners'
'cache'
'1337'
'Qui'
'480_'
'frag'
'Bor'
'154_'
'cost\u^_'
'rk^_'
'libraries^_'
'declaration^_'
'Mini'
'INFO\u^_'
'onal^_'
'Ying^_'
'0.19'
'CLE'
'bins^_'
'previous_'
'Workflow^_'
'REPORT'
'PRIMARY^_'
'NES'
'2t'
'wall^_'
'pen_'
'tier'
'sme'
'trait'
'visual'
'ATE^_'
'427'
'words\u^_'
'quotes^_'
'498'
'NR^_'
'numpy\u^_'
'yin'
'inplace\u^_'
'gad'
'rta'
'Particle^_'
'324'
'sete'
'ets^_'
'Corr'
'deprecated_'
'And'
'inc_'
'638'
'v'
'suit'
'257'
'cro'
'cion^_'
'dv^_'
'wagtail_'
'tech'
'hed'
'1025'
'ANCE'
'pag'
'Acc'
'async'
'f2'
'handles^_'
'rac'
'(`^_'
'However^_'
'BBI^_'
'Ax'
'contract^_'
'PID^_'
'CAA'
'Oa'
'ator_'
'verb_'
'Block'
'Tx'
'Json_'
'preferred^_'
'Nh'
'csr'
'KB^_'
'8080^_'
'folders_'
'Hor'
'repository\u^_'
'sre'
'isoformat_'
'anne'
'fr_'
'QUE'
'coerce'
'weather^_'
'lse'
'288'
'Side^_'
'ming'
'With'
'RD^_'
'PACK'
'/%(^_'
'wall'
'mesh\u^_'
'enta'
'thr'
'Validator^_'
'CHAR^_'
'?://.*\\.^_'
'tle'
'gene'
'distances_'
'Measure'
'HY'
'throw^_'
'ced'
'smo'
'responses^_'
'0x24_'
'1204'
'h'
'()"'
'0x1D6'
'das^_'
'fro'
'Fl'
'Insert'
'prev'
'gzip_'
'NEW'
'PK'
'Se'
'deserialize'
'fileno_'
'";"_'
'Hidden^_'
'LIGHT'
'155_'
'gam'
'fl^_'
'spar'
'completed_'
'facility^_'
''!'_'
'Light'
'BASE'
'Hook_'
'fbd^_'
'ary_'
'claim'
'1016'
'un_'
's\u\u_'
'bg\u^_'
'inverse^_'
'Ari'
'nun'
'HEAD'
'relu^_'
'chord'
'mobile'
''?'
'SPI^_'
'Dictionary_'
'gzip^_'
'ILE'
'Relative^_'
'ido'
'TAG_'
'0.27'
'lb\u^_'
'ARD'
'DEP'
'AES^_'
'ymax_'
'rsplit_'
'histogram^_'
'FG'
'traffic^_'
'detach'
'INV'
'paint'
'Links^_'
'flush^_'
'fabric^_'
'deposit'
'6666'
'ument'
'tes_'
'intersection_'
'/$^_'
'spy'
'Indent_'
'shift\u^_'
'[('
'hack'
'email'
'Write_'
'mav'
'[.'
'ftp'
'Bu^_'
'ATC'
'asn'
'Land'
'protobuf^_'
'g1_'
'feat^_'
'dash^_'
'instrument^_'
'spectrum^_'
'requests\u^_'
'gui\u^_'
'mkdtemp_'
'fore'
'testcase_'
'dpi_'
'ade^_'
'Fit^_'
'inplace_'
'checkbox^_'
'1040'
'dataf'
'Place^_'
'MF'
'LINK^_'
'Instances^_'
'qg'
'fw^_'
'Define^_'
'RESPONSE\u^_'
'timed'
'Conf_'
'351'
'VIS'
'eval'
'd1'
'see'
'hei'
'escape\u^_'
'dea'
''([^_'
'Kon'
'cob'
'FORMAT\u^_'
'portal^_'
'cation^_'
'Probe^_'
''~'_'
'mpr'
'bw^_'
'Xl'
'recipe_'
'heading_'
'317'
'bp^_'
'Rules^_'
'N∅'
'measure_'
'DQ'
'Visible_'
'640_'
'sect'
'Pan'
'normally^_'
'San^_'
'acc\u^_'
'social'
'RI^_'
'lev'
'ust^_'
'fip'
'230^_'
'Region_'
'YY'
'flat\u^_'
'BAD\u^_'
'0xF'
'SHA'
'nest_'
'hora'
''∅∅∅∅∅∅∅∅∅'_'
'1208'
'eps^_'
'chat_'
'Soft^_'
'rad^_'
'maintainer'
'-+'
'tail^_'
'monitor\u^_'
'Proto^_'
'1152'
'ech'
'fur'
'DEC'
'gcs^_'
'CUSTOM'
'353'
'pars_'
'SET_'
'Mt'
'Env_'
'ement^_'
'menu'
'loader^_'
'355'
'thi'
'a0_'
'267'
'Mol'
'1372'
'peer\u^_'
'dep^_'
'colors'
'child'
'cgi_'
'kj'
'occur^_'
'access'
'tracker^_'
'related_'
'sid'
'AGA'
'Classes^_'
'0x2F9'
'013^_'
'GB'
'dof'
'existing_'
'Nt'
'ned^_'
'620^_'
'dbm'
'Stop_'
'Diff^_'
'th\u^_'
'submission_'
'BORDER^_'
'ro_'
'nickname_'
'1213'
'pandas^_'
'rev\u^_'
'1202'
'draft^_'
'Contains_'
'/*.^_'
'Cg^_'
'dft^_'
'She'
'ccd'
'transcript'
'const\u^_'
'volt'
'Customer^_'
'ARRAY^_'
'g'
'stripe'
'Aa^_'
'158_'
'coeff_'
'Sh'
'Elements_'
'subc'
'neg^_'
'ttl^_'
'assignment_'
'eve'
'secs_'
'tet'
'dbs'
'Idle^_'
'Brush_'
'lor'
'ments_'
'"+"_'
'COM^_'
'Tool'
'parsers_'
'spaces_'
'beta'
'relpath_'
'231^_'
'rt\u^_'
'reserve'
'openstack_'
'FI^_'
'cancel\u^_'
'Clean^_'
'GRA'
'uj'
'Valid_'
'eto'
'nut'
'0x2F8'
'lost^_'
'Lc'
'Calendar^_'
'rtd'
'Dan'
'Xb'
'yu^_'
'Freq^_'
'CDF^_'
'AGC'
'BT'
'Transition_'
'PROCESS'
'({'
'Quick^_'
'Get'
'strides_'
'csc'
'vin^_'
'vid^_'
'QS'
'Sparse^_'
'elem'
'websocket'
'1091'
'authenticate_'
'Oct'
'unif'
'Stat^_'
'ownership_'
'zon'
'operators_'
'Performance^_'
'Vs'
'vk'
'ior^_'
'Dou'
'00041834^_'
'anonymous^_'
'1198'
'450'
'nsp'
'Pickle_'
'Weight^_'
'amb'
'Transport^_'
'every'
'\u\u\u'
'ERE'
'rer'
'instance'
'rte'
'KP'
'gent'
'cls\u^_'
'nfi'
'FT^_'
'pygments\u^_'
'tick\u^_'
'734'
'1e-1'
'wat'
'Reserved_'
'aio'
'imp'
'unma'
'sna'
'Ig^_'
'1125'
'tbl_'
'0.26'
'129_'
'Ze'
'Pt'
'directive^_'
'device'
'Redirect^_'
'Kc'
'eds'
'Features_'
'WT'
'double\u^_'
'having^_'
'096'
'week_'
'ends^_'
'bai'
'cia'
'Paths_'
'ss\u^_'
'boundary_'
'SQL_'
'742'
'MU'
'fire^_'
'tkinter_'
'pass'
'ALIGN\u^_'
'gis^_'
'cols^_'
'Chr'
'1021'
'cgi^_'
'writer^_'
'ANG'
'mute'
'ro'
'c1'
'Like^_'
'286'
'daily^_'
'ubs'
'pick'
'sion^_'
'pane'
'anno'
'ett'
'high\u^_'
'='%^_'
'encoded\u^_'
'gel'
'Moved^_'
'nbr'
'124^_'
'Renderer_'
'trailing^_'
'sqs'
'Theme^_'
'Gr'
'replacement^_'
'gk'
'rus'
'Spe'
'1102'
'han^_'
'bt^_'
'B'
'detection^_'
'seed'
'filtered_'
'robot^_'
'Collector_'
'Face^_'
'ement'
'vie'
'products_'
'cri'
'retrieved^_'
'oll'
'zip'
'Sen'
'comment'
'pal'
'gp^_'
'Eli'
'king'
'Bla'
'ct\u^_'
'dog'
'Chan^_'
'theta'
'RP^_'
'mes_'
'BUS'
'notebook_'
'Texture^_'
'nim'
'passing^_'
'tracking^_'
'824'
'1205'
'esta'
'595'
'reward_'
'prob'
'wheel'
'xhtml^_'
'Human^_'
'variance^_'
'rew'
'lad'
'zap'
'=-^_'
'apo'
'Square^_'
'tate_'
'abort^_'
'Xie^_'
'tar_'
'removing^_'
'LAST^_'
'*/\\^_'
'rsp_'
'bic'
'Escape_'
'Hex_'
'od_'
'COMMENT'
'ell^_'
'1041'
'reject'
'CLOSE'
'qt_'
'intent'
'wid'
'fi_'
'gr\u^_'
'Images^_'
'2.5'
'gin'
'Such^_'
'pyd'
'LY^_'
'jf'
'higher^_'
'=(^_'
'+)?'
'FV'
'Black^_'
'fire'
'Records^_'
'LEN'
'bluetooth^_'
'floating\u^_'
'etr'
'csv'
'manifest\u^_'
'ARCH'
'mme'
'NIC'
'PATTERN_'
'5._'
'rio'
'788'
'lient_'
'ow_'
'Fi^_'
'','
'SB^_'
'off\u^_'
'PP^_'
'+-'
'oto'
'LE\u^_'
'FEED'
'div'
'ment\u^_'
'seqs_'
'apps'
'064^_'
'computer^_'
'1052'
'Retr'
'answer\u^_'
'Proc^_'
'PAD'
'044^_'
'lug'
'152_'
'ZA'
'Based^_'
'cde'
'135^_'
'1299'
'oz'
'3.9'
'iv_'
'Tag\u^_'
'1210'
'rx'
'upt'
'guid^_'
'"{%^_'
'wo^_'
'pi\u^_'
'vlan_'
'65'
'curr'
'ona'
'We'
'|\\\\'
'shard'
'tup'
'itu'
'operand^_'
'1230'
'downloaded^_'
'vent'
'Buf^_'
'erl'
'Actions_'
'MY'
'GF'
'Gc'
'round\u^_'
'pid\u^_'
'ped_'
'Regular^_'
'UNS'
'0.002'
'Translation^_'
'Partition^_'
'Wpan^_'
'own_'
'760'
'retain'
'Lat'
'h1_'
'kra'
'Enter'
'votes^_'
'ese'
'1017'
'translate\u^_'
'qf'
'pygments_'
'1039'
'tig'
'argmax_'
'doing^_'
'ads'
'nick^_'
'nic^_'
'Longitude^_'
'turn_'
'720^_'
'CONTROL^_'
'1019'
'neu'
'\u\u\u\u\u\u\u\u\u\'
'Coord^_'
'628'
'lv^_'
'share'
'Pra'
'tax^_'
'mont'
'account'
'storage'
'bru'
'alc'
'ngram'
'Specific^_'
'alu'
'NR'
';"'
'ACCESS\u^_'
'coverage_'
'HEA'
'1303'
'ial'
'Add'
'inherit'
'flux_'
'removed_'
'TOKEN_'
'ook'
'patches_'
'2.7'
'Dn'
'further^_'
'sau'
'1312'
'rename\u^_'
'award'
'ire^_'
'POP'
'Df'
'radians_'
'piece_'
'nsh'
'AO'
'">"_'
'Capacity^_'
'+"-"+^_'
'ties^_'
'layout\u^_'
'cron'
'444'
'rate'
'kube'
'tia'
'bridge_'
'bbe'
'[\u\u\uCARET\u\u\u"'
'sound_'
'csp'
'430'
'1022'
'Gp'
'Select'
'307'
'yar'
'Main_'
'features\u^_'
'probe^_'
'graphic'
'129^_'
'==='
'unique'
'pw_'
'HH^_'
'represented^_'
'econ'
'DE'
'addon_'
'command'
'oup'
'BIO'
'ism'
'States^_'
'Works'
'toa'
'Amount^_'
'Adding^_'
'company_'
'Const_'
'Read_'
'Chi'
'OFF^_'
'plan'
'Jiao^_'
'Alignment^_'
'QC'
'DIR\u^_'
'assumed^_'
'TEXTURE^_'
'Subscription^_'
'PLATFORM'
'Allowed^_'
'brush_'
'fish'
'tob'
'Lea'
'840_'
'BRA'
'present'
'1222'
'1137'
'references_'
'tw'
'timestamp\u^_'
'population_'
'072'
'dex^_'
''\u\u\uCARET\u\u\u''
'Adapter^_'
'story^_'
'batch'
'Fault^_'
'067'
'ovi'
'encrypt^_'
';</^_'
'configurations^_'
'samples\u^_'
'Dan^_'
'0.23'
'XA'
'pack'
'GG'
'session'
'Hr'
'ass_'
'Ya^_'
'classname_'
'1361'
'resample'
'fine'
''(%^_'
'leader'
'fas'
'multis'
'ey'
'1099'
'037^_'
'footer^_'
'epa'
'TY'
'tu^_'
'Operand_'
'dates^_'
'YN'
'ymin_'
'nga'
'0000002'
'vir'
'thresh_'
'scroll'
'00000_'
'pub\u^_'
'mace^_'
'Tan^_'
'0x1D7'
'el\u^_'
'cq'
'connect'
'rotate_'
'segments^_'
':</^_'
'pair\u^_'
'ANT'
'consumer_'
'Pa^_'
'wv'
'Mz^_'
'SX'
'Join_'
'aster'
'anchor^_'
'0.45'
'Chu'
'extend\u^_'
'A1'
'RETURN'
'Gua'
'745'
'PRINT'
'771'
'rpm'
'ACK^_'
'scala'
'k1_'
'=<^_'
':\\\\^_'
'QL^_'
'5.5'
'trim^_'
'relationship^_'
'nen'
'1033'
'Gan'
'record'
'Tkinter_'
'TOKEN^_'
'int64_'
'Jh'
'conve'
'payment\u^_'
'lon\u^_'
'ways^_'
'mind'
'hsp'
'scp'
'ORDER'
'ded^_'
'".*'
'Already^_'
'ress'
'compact'
'sg\u^_'
'kill'
'RAC'
'compat^_'
'MG'
'3600'
'["'
'IU'
'hooks^_'
'64\u^_'
'2f'
'lum'
'grad^_'
'eva'
'bool\u^_'
'Fn^_'
'station\u^_'
'widgets^_'
'typ'
'Us^_'
'147_'
'Swa'
'0003'
'named\u^_'
'protocol\u^_'
'ATI'
'wp^_'
'Dy'
'CGT'
'Sign'
'DEVICE\u^_'
'overload'
'1081'
'USER'
'1044'
'FLOAT^_'
'scrapy_'
'fix_'
'leaf_'
'1209'
'SER'
'instrument_'
'SHARE'
'GGA'
'ire'
'NUMBER\u^_'
'ind\u^_'
'pf_'
'inst^_'
'000000'
'yt^_'
'0x15'
'9999^_'
'POST'
'0.37'
'NEW^_'
'134_'
'dispatcher_'
'kid'
'137_'
'1134'
'0.15'
'652'
'rot^_'
'1305'
'DRAWNS_'
'1075'
'0x60_'
'149_'
'updating^_'
'Curve^_'
'spline'
'fft_'
'DY'
'analytic'
')."""_'
'1250'
''%'
'exec\u_'
'')]'
'Src^_'
'Bin'
'Las'
'Lm^_'
'G'
'ONS'
'lea'
'733'
'""^_'
'1307'
'Da^_'
'xyz'
'revision\u\u_'
'Cc^_'
'topology_'
'differ'
'Scr'
'ATG'
'1235'
'0x50_'
'abb'
'tiles_'
'KS^_'
'----^_'
'major\u^_'
'namespaced'
'106^_'
'perform\u^_'
'extends^_'
'reci'
'rfc^_'
'malloc^_'
'1064'
'ttl_'
'rem'
'Dw'
'ads^_'
']"'
'po_'
'Bits_'
'FIND'
'Lists^_'
'groups\u^_'
'1000000_'
'Ser'
'1093'
'team'
'lease'
'<\\^_'
'rend'
'Ov'
'KR'
'OUT\u^_'
'M∅'
'enter'
'trend'
'Cd^_'
'aggregate^_'
'1055'
'1207'
'sign\u^_'
'burn'
'cil'
'614'
'ubuntu^_'
'kb^_'
'Em'
'FIELDS_'
'ptr'
'BQ'
'Pt^_'
'ACA'
'Pick'
'constr'
'null\u^_'
'shall^_'
'multiple_'
'137^_'
'MAP'
'OBJ^_'
't2'
'Requires^_'
'00010'
'],'
'l1'
'programme'
'define_'
'BIT'
'Answer^_'
'1157'
'TD^_'
'ect^_'
'calculation^_'
'RAM^_'
'Gro'
'speed\u^_'
'Clip^_'
'770'
'vc^_'
'phrase_'
'logp'
'thumb'
'ash^_'
'shop'
'solar'
'prune'
'games^_'
'Dir'
'=='
'inch'
'Details_'
'yan'
'workers^_'
'transformation^_'
'Ok_'
'Ye^_'
'Intent^_'
'six^_'
'1130'
'noop_'
'data2_'
'i2_'
'301_'
'Simulator^_'
'RU^_'
'thermo'
'`_'
');"_'
'Far'
'774'
'Qg^_'
'584'
'1155'
'FL^_'
'ami^_'
'pou'
'chk'
'0.28'
')-^_'
'inject'
')|^_'
'mov'
'cookie\u^_'
')),^_'
'1095'
'Mod'
'endpoints^_'
'origin\u^_'
'zv'
'{{'
'past^_'
'CLO'
'inheritance^_'
'express^_'
'htmlhelp\u^_'
'FORM'
'doctest_'
'stopped^_'
'Dt'
'fl_'
'193^_'
'executing^_'
'489'
'0x23'
'regexp_'
'Po^_'
'IM^_'
'424'
'1001'
'ogg^_'
'pause_'
'1203'
'matching\u^_'
'engine\u^_'
'populate\u^_'
'talk'
'Direction_'
'1114'
'ust'
'nwa'
'ql'
'Large^_'
'tabs^_'
'ssl'
'b64encode_'
'plots^_'
'pull'
'List'
')\\'
'9\u^_'
'Compare^_'
'Attrib^_'
'142_'
'scene\u^_'
'zat'
''$'_'
'Version'
'how'
'atol_'
'ncode'
'ticket_'
'LOAD'
'CG'
'1029'
'kor'
'0.29'
'pressure^_'
'gain_'
'1360'
'PRODUCT'
'wal'
'fem'
'imu'
'1206'
'006^_'
'omm'
'C3'
'minimum_'
'token'
'keep_'
'Move_'
'lowercase^_'
'subdir^_'
'informa'
'Stra'
'Checker_'
'cot'
'analyse'
'mysql\u^_'
'WK'
'0200'
'cleanup\u^_'
'Button\u^_'
'1394'
'1104'
'>.^_'
'uploader_'
'GCA'
'miss'
'Gender^_'
'ego'
'0xE71C_'
'0.94'
'649'
'-()"_'
'capabilities_'
'ax\u^_'
'\\-'
'1078'
'V2'
'1224'
'tests'
'Gd'
'httplib_'
'tpu'
'uint'
'rdf^_'
'enemy'
'Bat'
'pixel_'
'390'
'subclasses^_'
'DISP'
'138_'
'Writer^_'
'dhcp^_'
'Completed^_'
'1374'
'802^_'
'S2'
'Factor^_'
'354'
'1106'
'th∅'
'signature\u^_'
'ctr'
'PUBLIC^_'
'SPACE^_'
'postgres^_'
'oauth\u^_'
'bia'
'ures^_'
'interp_'
'dangerous^_'
'tokens\u^_'
'hs_'
'topology^_'
'...\\^_'
'1214'
'sun^_'
'781'
'scale'
'fpr'
'UO'
'||'
'Quality^_'
','^_'
'Street^_'
'Reb'
'minor_'
'Uses^_'
'AUTHORS^_'
'345^_'
'Generic_'
'CAG'
'gp_'
'breakpoint^_'
'Choice_'
'TIME'
'0.36'
'plas'
'CODE\u^_'
'tep'
'are\u^_'
'1245'
'...............^_'
'photo_'
'hes^_'
'Something^_'
'keyword\u^_'
'Kat'
'ACTIVE^_'
'4.4'
'gain^_'
'GRE'
'gold^_'
'interest^_'
'825'
'1131'
'skipped^_'
'FLOW'
'1314'
'ravel_'
'WC'
'Os^_'
'YX^_'
'Volunteer^_'
'nem'
'uis'
'LINE\u^_'
'north'
'229^_'
'supplier'
'Cla'
'swagger^_'
'cdf^_'
'had'
'sz^_'
'Exi'
'pitch^_'
'32\u^_'
'ry\u^_'
'Colour_'
'1173'
'L2^_'
'4.2'
'Month^_'
'projection_'
'crypto^_'
'got_'
'Guess_'
'exchange_'
'1031'
'jac'
'375_'
'webob_'
'Actions^_'
'Alb'
'225^_'
'Describe^_'
'1232'
'Chart^_'
'0005'
'popen_'
''\u\u\uCARET\u\u\u['
'[''
'movies^_'
'hang'
'PAGE\u^_'
'762'
'Dar'
'spatial^_'
'randrange_'
'convert'
'0.99'
'formatted\u^_'
'h2_'
'tuples_'
'Deployment^_'
'eight'
'launch\u^_'
'={}'
'loan'
'365_'
'Fall'
'Stor'
'even'
'audit'
'0.80'
'Fix'
'Set'
'interest'
'0x31'
'DOC'
'rro'
'bob^_'
'280_'
'noise\u^_'
'Patch^_'
'Og'
'WMS^_'
'visit'
'[/^_'
'semantic'
'predicate_'
'meth'
'"),^_'
'intervals_'
'FOR'
'1313'
'Poll'
'theta\u^_'
'gain'
'blueprint'
'772'
'ente'
'bind'
'Credentials^_'
'}:'
'doctype^_'
'nus'
'Ta^_'
'141_'
'prime^_'
'sigma'
'cod'
'1333'
'npy^_'
'4000_'
'over\u^_'
'1304'
'San'
'compression^_'
'facebook^_'
'Mapped^_'
'UV'
'unde'
'lassoapp^_'
'GAA'
'lesson'
'1094'
'fid^_'
'Literal^_'
'logging\u^_'
'IGNORE'
'ril'
''//'
'erver^_'
'Bet'
'sed'
'lhs_'
'resolved^_'
'1067'
'fruit'
'Upgrade^_'
'nf_'
'gna'
'well'
'invite'
'years^_'
'Tk^_'
'dio'
'better^_'
'Mc'
'namespace\u_'
'4.1'
'INC'
'Export'
'triggered_'
'mass'
'auc'
'minion'
'sac'
'offer'
'orders^_'
'neg_'
'776'
'FIX'
'"''"_'
'<='
'1092'
'xx'
'arcs'
'DM^_'
'TE\u^_'
'Socket_'
'0x48_'
'mli'
'BG^_'
'den'
'isco'
'insta'
'062^_'
'zer^_'
'worksheet_'
'AI^_'
'ms\u^_'
'785'
'1220'
'utc'
'tum'
'quick^_'
'Vm'
'Focus^_'
'unix^_'
'Assignment^_'
'743'
'dens'
'2.6'
'sentences_'
'saving^_'
'eee'
'RIN'
'ker'
'1357'
'Hash'
'007^_'
'Boot^_'
'Manual^_'
'University^_'
'dag_'
'3.0'
'lma'
'upon^_'
'moved^_'
'identify^_'
'SY'
'policies_'
'controller\u^_'
'1306'
'(?:'
'pros'
'Hyper'
'%-^_'
'Mm^_'
'1032'
'setitem\u\u_'
'KW'
'Foot'
'1366'
'Bol'
'Board^_'
'interval\u^_'
'PER'
'ig_'
'srcset^_'
'dsc'
'ocu'
'exact_'
'People^_'
'792'
'skip'
'1323'
'Redis^_'
'via'
'Fail_'
'##'
'contact'
'pom'
'1127'
'ups'
'publisher^_'
'ame'
'ant_'
'rime'
'Modif'
'ash'
'Over^_'
'fuzzy'
'757'
'reflection_'
'WITH\u^_'
'FILE'
'1172'
'ae_'
'1150'
'0.32'
'pred^_'
'posix'
'stro'
'1113'
'ition^_'
'ern^_'
'pt\u^_'
'1500_'
'trees_'
'thread'
'ncon'
'eigen'
'MAT'
'PIN'
'direction'
'curle^_'
'returns_'
'1309'
'dell'
'cht'
'1302'
'mba'
'Represents^_'
'"...'
'transit'
'Du^_'
'Follow'
'eps'
'Capture^_'
'serve'
'>('
'emoji'
'torrent^_'
'policies^_'
'chap'
'Hal'
'COMM'
'come^_'
'Then^_'
'1215'
'varname^_'
'							_'
'instr_'
'dil'
'Lit'
'SUPPORT'
'walk^_'
'restriction^_'
'yh'
'1133'
'p3_'
'Thr'
'Y3_'
'Saved^_'
'Tt'
'40.'
'autospec_'
'1320'
'Process'
'ONLY^_'
'parms_'
'cw^_'
'more\u^_'
'bear'
'1120'
'"]'_'
'yv'
'FW'
'Expanded^_'
'compound'
'oba'
'opened^_'
'cent^_'
'hip'
'1335'
'Smart^_'
'cif'
'Star'
'1219'
'1047'
'l2'
'1390'
'SLA'
'TGT'
'999999'
'1065'
'History_'
'Vel'
'Q\u^_'
'1063'
'WW'
'taxon'
'1126'
'curl'
'1174'
'bst'
'BY'
'module'
'house'
'TOP'
'RED'
'0.34'
'teacher'
'TOP^_'
'goo'
'ope'
'frontend^_'
'cuda_'
'organization_'
'Han^_'
'gio'
'Ml'
'651'
'shot'
'1116'
'Integration^_'
'1380'
'touch^_'
'1281'
'uno'
'globals^_'
''{'
'ast\u^_'
'1311'
'm2'
'DECIMAL\u^_'
'AUTHOR'
'potential^_'
'functional^_'
'atch'
'24.'
'movie\u^_'
'Major^_'
'1109'
'execute'
'2017_'
'2010_'
'lati'
'1098'
'java\u^_'
'1229'
'stl'
'realm^_'
'compatibility^_'
'0.40'
'album\u^_'
'cs\u^_'
'lc^_'
'786'
'aux_'
'abe'
'complete'
'everything^_'
'1185'
'".."_'
'luc'
'optional\u^_'
'Lambda^_'
'angle'
'Put^_'
'Three^_'
'1061'
'(*'
'107^_'
'erg'
'transparent^_'
'tod'
'1315'
'1124'
'alter\u^_'
'alarm\u^_'
'1060'
'met^_'
'0xa8'
'aggregate_'
'1051'
'>''
'1190'
'localtime_'
'pit'
'386'
'nick'
'basic'
'1036'
'tone'
'DJ'
'1199'
'special'
'Vn'
'Ke^_'
'0.31'
'registra'
'energy\u^_'
'dependency_'
'1042'
':%(^_'
'cached_'
'nou'
'importlib_'
'Before^_'
'yw'
'1260'
'usage\u^_'
'1388'
'rom^_'
'LIMIT^_'
'](^_'
'1371'
'iy'
'bindings^_'
'merged^_'
'TS_'
'tse'
'rpc'
'1118'
'security_'
'?:^_'
'xr'
'alert\u^_'
'1240'
',{'
'Connected^_'
'vpn^_'
'fileobj_'
'approve'
'1056'
'783'
'rsp'
'1058'
'+('
'located^_'
'ram_'
'1321'
'`'_'
'1160'
'music'
'RY^_'
'ECT'
'Binding^_'
'Lf'
'JW'
'observer_'
'configuration\u^_'
'\\['
'793'
'cid'
'1248'
'dos'
'ha_'
'AST^_'
'1298'
'etag_'
'1351'
'Ttl^_'
'3.4'
'getb'
'ath^_'
'Tom'
'ista'
'gives^_'
'remaining_'
'Type'
'most\u^_'
'TEMP'
'1345'
'Kan'
'sib'
''&#^_'
'fold'
'Shipment^_'
'encrypted^_'
'configs^_'
'∅g'
'Canvas_'
'uuid'
'../^_'
'resume^_'
'fied^_'
'dbname_'
'a6'
'tensor'
'"\\'
'expires^_'
'Hide^_'
'Axis_'
'2002^_'
'locus'
'adm'
'1178'
'elapsed_'
'hold'
'JD'
'needs\u^_'
'254^_'
'protein^_'
'vn^_'
'insert'
'glu'
'periodic'
'flip'
'aux^_'
'orig'
'good_'
'forest'
'REQUIRE'
'applica'
'Anti'
'school'
'centre'
'Reverse^_'
'printed^_'
'coroutine_'
'apis^_'
'some\u^_'
'opc'
'less'
'simply^_'
'1279'
'1115'
'Flask^_'
'utt'
'trig'
'1285'
'affected^_'
'elem^_'
'Ll^_'
'route'
'ej'
'Waiting^_'
'sampling^_'
'pub_'
'0.65'
'HIGH'
'bright'
'"%.^_'
'plt^_'
'1035'
'Uri^_'
'configparser_'
'1038'
'accessor'
'bj'
'157_'
'1211'
'Ros'
'1350'
'iba'
'fea'
'kom'
'ndr'
'Perm'
'staticfiles^_'
'1282'
'lz'
'abc'
'estimator_'
'si'
'who'
'{}.'
'Vis'
'ENDPOINT'
'Converter_'
'0xC0_'
'ALTER^_'
'COLOR_'
'1290'
'T'
'1136'
'1028'
'RESOURCE\u^_'
'intern'
'genes_'
'4.7'
'uz'
'Preproc_'
'treated^_'
'1334'
'Dra'
'Yao^_'
'1108'
'pai'
'lay'
'pul'
'equals^_'
'1105'
'270_'
'422'
'217^_'
'chat'
'architecture^_'
'wide'
'contain'
'Vid'
'Rename^_'
'motion^_'
'QU'
'1308'
'parti'
'791'
'card'
'1336'
'depth\u^_'
'ENABLED^_'
'stage\u^_'
'dead^_'
'darwin^_'
'1331'
'slow'
'Fore'
'0x1_'
'Opt^_'
'blue'
'Edge_'
'1107'
'OG'
'cub'
'Xo'
'align'
'Uid^_'
'hub^_'
'1284'
'transition_'
'allocator^_'
'Repo^_'
'yy_'
'Xp'
'ALLOWED\u^_'
'1379'
'```^_'
'dirs^_'
'Statement_'
'\\'%^_'
'coo'
'\u\u()"^_'
'terminal_'
'workload'
'Functions_'
'Jp'
'!!!'
'ap\u^_'
'moving^_'
'Framework^_'
'rich'
'Suite^_'
'olve'
'Projects^_'
'Delete_'
'1338'
'CQ'
'1194'
'Payment^_'
'1145'
'specs^_'
'rint'
'vv'
'v3_'
'office^_'
'divide'
'y∅'
'txt'
']-'
'Since^_'
'contacts^_'
'UF'
'1383'
'Ou'
'="([\u\u\uCARET\u\u'
'Community^_'
'randn_'
'ppi'
'lei'
'heat^_'
'1370'
'candidate^_'
'1180'
'TARGET'
'interpreted^_'
'voice^_'
'Tile^_'
'}/'
'Callbacks_'
'1265'
's3'
'ranking'
'y'
'A1_'
'substr'
'grow'
'MAIL'
'MAS'
'supp'
'bond'
'ZERO'
'comm'
'Ala'
'Retry^_'
''/>^_'
'1342'
'19.'
'ddw'
'wc_'
'4.8'
'unre'
'eur^_'
'Cg'
'1274'
'1191'
'1233'
'ows'
'most'
'safe'
'answers_'
'roll'
'STRI'
'Lin^_'
'routine^_'
'dry\u^_'
'yk'
'0.24'
'alter'
'RB^_'
'mag_'
'FIELD\u^_'
'BLE^_'
'rei'
'START_'
'yang^_'
'1395'
'XO'
'1221'
'fwd'
'deno'
'connector^_'
'clean'
'Final'
'clu'
'accept'
'prefixes_'
'"("_'
'problem\u^_'
'2.8'
'h∅'
'goal^_'
'cone'
'g∅'
'Bound^_'
'angles_'
'identified^_'
'1053'
'beg'
'BOX'
'Ven'
'checkpoint\u^_'
'stamp_'
'returns\u^_'
'GAG'
'mx^_'
'pdf\u^_'
'1291'
'sur^_'
'00041836^_'
'gt\u^_'
'xia'
'1244'
'glyph'
'hit\u^_'
'1175'
'###'
'@\\^_'
'Review^_'
'looking^_'
'1216'
'tracts^_'
'subdomain'
'Ping^_'
'IP\u^_'
'1049'
'openc'
'town^_'
'nage'
'Conf'
'014^_'
'recursive^_'
'1228'
'slash'
'0xFA'
'OE'
'spt^_'
'DISABLE'
''∅∅∅∅'
'fam'
'sha_'
'OW^_'
'"='
'Contents_'
'Age^_'
'memo'
'151_'
'1289'
'rollback_'
'monkeypatch_'
'hist'
'1200'
'1270'
'YI'
'Did^_'
'1057'
'Ug^_'
'Eg'
'Related^_'
'1045'
'Logger^_'
'ENUM'
'1318'
'templ'
'1330'
'1034'
'2003^_'
'1246'
'tee'
'Docker^_'
'street^_'
'aln'
'Globals_'
'1046'
'flt'
'oe^_'
'grant'
'fee^_'
'Es^_'
'uri\u^_'
'fel'
'Const'
'rnd'
'flash'
'500000'
'1018'
'coh'
'0.25'
'PJ'
'double'
'dbl'
'Dump^_'
'Fe^_'
'Iterator_'
'ug^_'
'ez^_'
'exec'
'206^_'
'remote'
'inserted^_'
'MIB_'
'LOCAL\u^_'
'Dark^_'
'argd_'
'external_'
'444_'
'Show_'
'Hungarian^_'
'Yuan^_'
'snap\u^_'
'capi^_'
'1373'
'Matcher_'
'1132'
'udi'
'Plan'
'1393'
'resource'
'1225'
'sph'
'1238'
'Wall^_'
'copied^_'
'CONST'
'1054'
'1170'
'1381'
'ops'
'avatar^_'
'------^_'
'"%'
'1288'
'sense^_'
'Train^_'
'bgp^_'
'ZI'
'today^_'
'Iv'
'1043'
'replace'
'1218'
'detect\u^_'
'1344'
'mist'
'pending_'
'indicate^_'
'simplejson_'
'On_'
'ken^_'
'CERT'
'1164'
'lia'
'1324'
'trailer^_'
'1059'
'1278'
'Merge'
'Wave'
'did'
'4.3'
'1287'
'ul_'
'sol_'
'(\u^_'
'rva'
'1097'
'Tre'
'Aw'
'pto'
''{}'
'1129'
'1294'
'1166'
'1389'
'sw_'
'composition'
'accessed^_'
'FIN'
'1317'
'374'
'TCG'
'1147'
'Fact'
'Speed_'
'Regexp_'
'pieces_'
'polygon^_'
'COUNT_'
'Reads^_'
'tte'
'bbw'
'native_'
'';'
'sc\u^_'
'1239'
'Deleted^_'
'ham^_'
'roll_'
'animal^_'
'Board_'
'Colors_'
'Pin^_'
'campaign^_'
'ARE'
'0004'
'ogr'
'alive^_'
'hub'
'DATABASES_'
'Experiment^_'
'slash^_'
'xp^_'
'listen_'
'surf'
'1346'
'rpo'
'xor^_'
'META'
'1236'
'HR^_'
'v2\u^_'
'233^_'
'iste'
'affiliation'
'1181'
'MENT\u^_'
'fact^_'
'1356'
'DOUBLE^_'
'ufb^_'
'locate'
'enum'
'/></^_'
'DIRS_'
'pty'
'QT'
'so_'
'T∅'
'cinder_'
'automatic^_'
'3.8'
')|'
'drive_'
'kr'
'1319'
'Invo'
'region'
'Flash^_'
'zie'
'nav^_'
'SQ'
'operands_'
'ora^_'
'1237'
'circle_'
'product'
'fde'
'Reading^_'
'IJ'
'840^_'
'nm^_'
'1217'
'1347'
'activities^_'
'isl'
'Managed^_'
'prom'
'warp'
'fade'
'rog'
'Park'
'Pad^_'
'JM'
'hon'
'deliver'
'IMPORT'
'AX'
'tox'
'rch'
'1275'
'0011'
'1363'
'1062'
'opl'
'ASS'
'finder_'
'your'
'seek^_'
'rq'
'neutron\u^_'
'gateway\u^_'
'REF^_'
'due'
'GSM^_'
'nof'
'?://^_'
'gur'
'Python_'
'FY'
'EQ_'
'survey^_'
'1396'
'stock_'
'360^_'
'ept'
'QD'
'1375'
'1168'
'"},^_'
'f4'
'207^_'
'PROP'
'embed\u^_'
'0.97'
'HP^_'
'Jun'
'east'
'1071'
'∅o'
'1369'
'1296'
'bias\u^_'
'1365'
'1139'
'mos'
'1367'
'incident'
'clause_'
'022^_'
''}^_'
'SAN'
'phase'
'Join^_'
'degrees_'
'FF_'
'prm'
'1227'
'tokenize'
'1197'
'hier'
'Det'
'mailbox'
'tils_'
'retrieve\u^_'
'ROW^_'
'Ub'
'ura^_'
'tent'
'OPTIONS_'
'gw'
'datastore^_'
'1386'
'Date'
'North^_'
'foreign^_'
'Note_'
'1242'
'0.92'
'jb'
'formula'
'pkl^_'
'footer_'
'1090'
'',)"_'
'Band^_'
'/*'
'RAI'
'EXPORT'
'[:'
'Rb'
'405_'
'til'
'1297'
'1340'
'LED'
'1068'
'Variant^_'
'0101'
'shop^_'
'CV^_'
'RX'
'downloads^_'
'Day_'
'ok\u_'
'hook\u^_'
'oro'
'1128'
'YC'
'light\u^_'
'Air^_'
'https'
'1096'
'0x2F'
'quant'
'cyan^_'
'1387'
'1249'
'1177'
'1144'
'rtr'
'onn'
'1267'
'413'
'rh^_'
'firewall^_'
'email\u\u_'
'dic'
'ecs'
'1161'
'dele'
'Payload^_'
'overlap_'
'multiplier_'
'Ny'
'bio^_'
'iso\u^_'
':"^_'
'1268'
'iment'
'--+\\^_'
'1273'
'dru'
'...)^_'
'skipping^_'
'unb'
'Alias^_'
'URE^_'
'outs'
'1169'
'1119'
'GIN'
'146_'
'sym'
'edited^_'
'jjw'
'exe'
'WAIT'
'Choose^_'
'fy'
'ione'
'OM^_'
'Gyp_'
'bba'
'pr\u^_'
'mand'
'1277'
'1192'
'cn_'
'BI^_'
'poly^_'
'classifier^_'
'Build'
'nu_'
'gender^_'
'DRAW'
'DAR'
'1037'
'0.55'
'Ev^_'
'mea'
'REGS^_'
'Latitude^_'
'Shutdown^_'
'Nu^_'
'LENGTH^_'
'0x19'
'1364'
'Sun^_'
'Late'
'1243'
'tn_'
'KV'
'nfr'
'ggw'
'logged\u^_'
'TAA'
'0x02_'
'wild'
'Interp'
'1264'
'Km'
'z'
'inn'
'CHANGE'
'1163'
'1341'
'subcommand'
'bitcoin'
'tos^_'
'preserve\u^_'
'jis^_'
'Rem'
'376'
'1286'
'Mj^_'
'1322'
'Exists^_'
'arg1_'
'efi'
'cion_'
'tour'
'fish^_'
'Ah'
'compressed^_'
'PCI^_'
'Model'
'1348'
'ok\u^_'
'QA^_'
'prim'
'respond'
'1271'
'xk'
'increment'
'separate'
'trunc'
'controls^_'
'STREAM_'
'tma'
'ULT'
'articles^_'
'LY'
'tolerance_'
'txt\u^_'
'advance'
'cate'
'ied'
'008^_'
'strand_'
'mouse'
'ylo'
'UDP^_'
')/'
'u∅'
'Nl'
'ets_'
'airflow^_'
'poll\u^_'
'appengine_'
'ely^_'
'1261'
'channel'
'[{^_'
'PIL_'
'1154'
'170^_'
'1352'
'1069'
'maxs'
'1066'
'vy^_'
'1325'
'vnf'
'tal^_'
'rates_'
'Best^_'
'neg\u^_'
'Ua'
'Avg^_'
'mn^_'
'UNKNOWN^_'
'="('
'zin'
'ioc'
'pyl'
'Stu'
'TABLE_'
'1392'
'117^_'
'atm'
'highlight^_'
'Comp^_'
'vec\u^_'
'ule^_'
'22.'
'ses'
'Ae'
'EOF^_'
'Converts^_'
'need'
'Sco'
'2.9'
'1359'
'sec\u^_'
'bil'
'batches_'
'outp'
'PASS^_'
'DFITC^_'
'esti'
'VL'
'1141'
'taxonomy^_'
'0o'
'speed'
'1391'
'l2\u^_'
'Documents^_'
'209^_'
'\\\\\\\\'
'changeset'
'450_'
'ecc'
'desired\u^_'
'Ei'
'SETTINGS_'
'1182'
'recover'
'ddo'
'Ne^_'
'uint_'
'ctype_'
'Poly^_'
'"#'
'writes^_'
'xli'
'constrain'
'backwards_'
'mol^_'
'subscriptions^_'
'.+'
'annot'
'rar'
'unlock'
'reports_'
'STR_'
'384_'
'inet^_'
'iam'
'dump'
'closing^_'
'1226'
'?|'
'say^_'
'cxx'
'ident^_'
'entered^_'
'1158'
'COMPRESS'
'mag^_'
'1184'
'Lost^_'
'central'
'mul_'
'CW'
'residual'
'Currency^_'
'digest^_'
'est'
'ARA'
'criteria_'
'sched'
'models\u^_'
'lineno^_'
'APPL'
'ling_'
'iop'
'EAD'
'Fr'
'1193'
'EY'
'1263'
'enc^_'
'grand'
'Stat_'
'1343'
'French^_'
'113^_'
'DICT_'
'prob\u^_'
'animate'
'26.'
'Inline^_'
'].'
'failure\u^_'
'8614'
'1326'
'hat_'
'purpose^_'
'wildcard'
'Topology^_'
'deletion^_'
'Ly'
'Hen'
'1269'
'Ren'
'far^_'
'dae'
'Fig'
'1262'
'stdcall^_'
'TRACK'
'zg'
'creation\u^_'
'm'
'iza'
'RETURN^_'
'1241'
'ino^_'
'GRID^_'
'216^_'
'PROC_'
'Subs'
'219^_'
'fu^_'
'tunnel^_'
'EPSG^_'
'ems'
'club'
'Visit'
'decl'
'FIRST\u^_'
'Scene^_'
'Clock^_'
'+?)'
'hdr^_'
'EQ^_'
'";'
'666'
'Mix'
'-----+---------^_'
'Gs'
'mul'
'blast'
'bei'
'orientation^_'
'::\u\u^_'
'sb_'
'netloc_'
'Perform^_'
'1283'
'fle'
'Gri'
'camera\u^_'
'pose'
'SYS'
'Diag'
'kivy^_'
'subscribe_'
'1142'
'ipe'
'THOUSAND\u^_'
'pro^_'
'GCC^_'
'frac'
'sell^_'
'pin\u^_'
'gno'
'prob^_'
'1316'
'ult^_'
'Conc'
'Fun'
'1156'
'food^_'
'fig^_'
'RN^_'
'styles^_'
'Watch^_'
'1339'
'Vim^_'
'+/^_'
'GCC'
'private_'
'kivy_'
'oor'
'reo'
'DI^_'
'1167'
'mu\u^_'
''(?:'
'toggle\u^_'
'ago'
'statistic'
'Wx'
'meri'
'php'
'0.90'
'1186'
'dock'
'verts_'
'cir'
'THR'
'rj'
'spark^_'
'orange^_'
'1151'
'1332'
'KK'
'subtype_'
']*'_'
'I1'
'1149'
'PORT'
'yx'
'1328'
'*******'
'1378'
'(@^_'
'1247'
'idn'
'asynchronous^_'
'<!--^_'
'Permission_'
']+\\'
'Disc^_'
'1148'
'take'
'SECRET^_'
'buf\u^_'
'Extend'
'1266'
'di_'
'fav'
'3.6'
'unused\u^_'
'fal'
'443'
'school^_'
'strat'
'mode'
'meas'
'issubclass_'
'corp'
'subco'
'e∅'
'Factor_'
'motif'
'replicate'
'Repository_'
'imap'
'buttons^_'
'abstract'
'Wn'
'LABEL^_'
'unse'
'GER'
'alias\u^_'
'checkpoint^_'
'1353'
'crit'
'DIRECT'
'deque_'
'Lazy^_'
'sat^_'
'dimensional^_'
'0.02_'
'1272'
'cure'
'Sorry^_'
'Wiki^_'
'imo'
'1368'
'eph'
'Alignment_'
'swigregister_'
'uci'
'sha256_'
'fits_'
'feat'
'v2'
'newd'
'EMAIL_'
'1138'
'1384'
'regexp^_'
'HOST\u^_'
'supply^_'
'Digital^_'
'testd'
'10000^_'
'aj^_'
'maxsize_'
'noun'
'LOCATION^_'
'blur'
'weights\u^_'
':{}'
'3.7'
'instructions_'
'fma'
'quote'
'CKSOTP^_'
'ssh'
'Diff_'
'LATIN^_'
'ance_'
'GTC'
'histogram_'
'complement'
'Xt'
'DESCRIPTION_'
'1385'
'User'
'1165'
'deprecated\u^_'
'subi'
'splits_'
'1254'
'Price_'
'205^_'
'ZZ'
'appears^_'
'viz'
'expectation'
'tw^_'
'trove'
'resid'
'jump^_'
'1354'
'polygon_'
'Selector_'
'79'
'leave'
'Modul'
'PW'
'ico^_'
'Native^_'
'Cam'
'S3'
'scope\u^_'
'quoted'
'Object\u^_'
'fastbinary_'
'scopes_'
'photo'
'3.1'
'367'
'reduce'
'pitch_'
'Tensor_'
'mix^_'
'Group'
'%}"_'
'ask_'
'pas'
'h2'
'CGG'
'2011_'
'cons'
'70.'
'1153'
'ames_'
'ice'
'-*'
'Plus^_'
'CMD^_'
'Common_'
'relevant^_'
'VH'
'Pyr'
'subtree'
'mutate'
'collect'
'ps\u^_'
'continue'
''~^_'
'omo'
'ij^_'
'1377'
'rx\u^_'
'indicator_'
'proba'
'Sink^_'
'1355'
'nq'
'lice'
'Prime'
'park'
'a5'
'1117'
'ident'
'gas^_'
'Sz'
'Nested^_'
'Green'
'subscription\u^_'
'counters_'
'1143'
'gett'
'ley^_'
'Finder^_'
'0000000'
'CLASSES_'
'efe'
'@@@'
'1349'
'Normal_'
'ffs'
'inl'
'1146'
'Face'
'Refresh^_'
'AME'
'indicator^_'
'retcode_'
'1358'
'grammar_'
'company\u^_'
'inherit^_'
'0x25'
'nte'
'bottom\u^_'
'mann'
'omitted^_'
'Adapt'
'combination^_'
'ight^_'
']])^_'
'scf'
'datastore_'
'cda'
'Mesh_'
'ube'
'verb'
'since_'
'Kn'
'1292'
'Trail'
'LV'
'ead^_'
'duc'
'1276'
'FIELD^_'
'direct\u^_'
'muta'
''**'
'compa'
'gru'
'csi'
'232^_'
'Unix^_'
'1196'
'z∅'
'%}{%^_'
'GR^_'
'Pic'
'Al^_'
'mil'
'fanart_'
'Dl^_'
'factors_'
'RECORD'
'rep'
'merz^_'
'deactivate'
'ren^_'
'nge^_'
'sob'
'mediat'
'ING'
'DESC^_'
'alo'
'1376'
'1382'
'inst'
'stores^_'
'est\u^_'
'TY^_'
'(.*)'
'osid^_'
'1183'
'objective^_'
'.-'
'corpus^_'
'vmax_'
'rz'
'1189'
'tell'
'qv'
'1195'
'phone'
'led'
'joint^_'
'listi'
'fraction_'
'numeric'
'random'
'Pen_'
'INSTALL'
'Female^_'
'.{^_'
'forecast'
'flask^_'
'nfo'
'data1_'
'lead'
'criteria^_'
'jo^_'
'401^_'
'loud'
'subprocess^_'
'prime_'
'variables\u^_'
'SCROLL'
'Pm'
'LIT'
'cut'
'Er^_'
'genre^_'
'bcc'
'1179'
'subscription_'
'fic'
'DBGKD^_'
'1293'
'(\\'^_'
'toolbar^_'
'scaling^_'
'expr\u^_'
'0.38'
'INCLUDE'
'All'
'030^_'
'wrong\u^_'
'rm\u^_'
'ipp'
'ella'
'Mus'
'requested\u^_'
'3.5'
'cidr_'
'rto'
'ORT'
'Devices^_'
'Bc'
'ipc'
'1362'
'ZX^_'
'uce'
'CONTROL'
'dam'
'260_'
'BIND\u^_'
'409_'
'inputs\u^_'
'0x03_'
'Sm'
'Population^_'
'heart'
'privilege'
'texts_'
'mda'
'Lite^_'
'refs^_'
'atan'
'BV'
'spread'
'legacy^_'
'setf'
'gte'
'Audit^_'
'crop^_'
'candidate\u^_'
'van^_'
'Skipping^_'
'132^_'
'subp'
'marker\u^_'
'TRAIN'
'HK'
'super\u^_'
'1327'
'downloader_'
'CASE^_'
'imports_'
'autod'
'<>^_'
'des_'
'solve^_'
'ERS'
'Baseline^_'
'unic'
'tpl'
'forwards_'
'Bulgarian^_'
'Rl'
'actor'
'304_'
'md\u^_'
'Suffix'
'163^_'
'1295'
'sleep\u^_'
'become^_'
'ls\u^_'
'invoke^_'
'30000'
'toolkit'
'nano'
'notation^_'
'Chrom'
'uts'
'thin'
'compose'
'years_'
'TAG^_'
'sai'
'argv^_'
'crash^_'
'"[\u\u\uCARET\u\u\u'
'GUI_'
'roll^_'
'rim'
'program'
'1048'
'varchar^_'
'restrict'
'Voice^_'
'Provides^_'
'own'
'brace'
'\\",^_'
'Dr^_'
'23.'
'Runs^_'
'RG^_'
'concurrent'
'Replay^_'
'qty_'
'general_'
'stem_'
'0.87'
'Lab'
'Ao'
'SAVE'
'PN^_'
'Bio'
'Categori'
'desc\u^_'
'1086'
'contextmanager_'
'bank\u^_'
'yz'
'won^_'
'classify'
'llow'
'LINK'
'ETH'
'Swap^_'
'ARG^_'
'Workspace^_'
'rgs_'
'dco'
'descr^_'
'Sys'
'Lm'
'ector'
'++'_'
'fnmatch_'
'Miscellaneous^_'
'oozie^_'
'MULTILINE_'
'k∅'
'FOLDER'
'COMPA'
'Diff'
'selenium_'
'1329'
'1259'
'Implement'
'nombre^_'
'/{}/^_'
'IZE'
'pma'
'unregister'
'salt'
'beta\u^_'
'Roo'
'colon^_'
'want'
'aggr'
'Mai'
'Registered^_'
'milli'
'little^_'
'instr'
'trunk^_'
'/>.^_'
'commit'
'NS\u^_'
'ISS'
'nol'
'Gla'
'abstract_'
'Ui^_'
'tell_'
'FOO^_'
'CLUSTER'
'Wire'
'Jar'
'BLUETOOTH^_'
'Pri'
'xbmc'
'bounding^_'
'cipher^_'
'nec'
'hid'
'SESSION\u^_'
'traverse'
'buckets_'
'speak'
'Wy'
'NP^_'
'acy'
'($^_'
'echo'
'TOKEN\u^_'
'larger^_'
'invoke_'
'Az'
'Tweet'
'Sep'
'year'
'del\u\u_'
'Annotation^_'
'throttle'
'smart\u^_'
'ticker_'
'Palette_'
'serialize\u^_'
'Jue^_'
'txn'
'HAR'
'Entries^_'
'TI^_'
'0430^_'
'Dri'
'ARG\u^_'
'plots_'
'matched_'
'Com'
'RESPONSE_'
'thumb_'
'rese'
'ox_'
'Similar'
'NUMBER_'
'subclassing_'
'1200_'
'Messages^_'
'1252'
'bus\u^_'
'ake'
'NCE'
'5.1'
'wrapped^_'
'collision'
'Init_'
'i∅n^_'
'Expect'
'Stamp^_'
'publisher_'
'truth^_'
'Draw_'
''''\\^_'
'sx'
'passwd^_'
'Fill'
'GI^_'
'mins'
'Jan'
'DIV'
'posix^_'
'assets_'
'names'
'FUNCTION^_'
'xmls'
'Noise^_'
'AUTO^_'
'DRA'
'pkt'
'life^_'
'bie'
'Song^_'
'...]'
'1072'
'macro'
'oad'
'Solution^_'
'Space'
'Fer'
'3f'
'Line'
'spa'
'stru'
'epsilon^_'
'REQUIRED^_'
'rave'
'construct\u^_'
'credit^_'
'Exe'
'Rows^_'
'Nav'
'eggs^_'
'Datas'
'ajax^_'
')</^_'
''{}'_'
'Angle_'
'exn^_'
'Moo'
'probably^_'
'pcs'
'dbe'
'begin'
'mysql'
'ban^_'
'[-'
'corner^_'
'BET'
'study'
'construct^_'
'lambda\u^_'
'unge'
'span'
'va_'
'student_'
'Fd^_'
'bios'
'4.0'
'usb'
'markup^_'
'webdriver_'
'5555'
'physical\u^_'
'shadow^_'
'phase\u^_'
'Jing^_'
'Cleanup_'
'---------'
'fier'
'equi'
'CTA'
'izer_'
'ew_'
'bld'
'foc'
'ansible^_'
'Division^_'
'quota\u^_'
'controls_'
'eld'
'1251'
'HEADER\u^_'
'Scroll'
'usec'
'ung'
'Abort'
'DOWNLOAD'
'Classifier^_'
'MAP\u^_'
'Rot'
'fv'
'FLAG^_'
'XB'
'hadoop^_'
'peak\u^_'
'unified\u^_'
'wide^_'
'gcp'
'stats'
'abcdef^_'
'cks'
'LONG^_'
'tie^_'
'Part'
'0xa7'
'moves^_'
'114^_'
'lasso^_'
'nent'
'marked^_'
'NER'
'suba'
'dade'
'Pan^_'
'pq'
'uda'
'bad_'
'0x70_'
'wi^_'
'ver\u^_'
'Fixture_'
'pages'
'ight'
'AJ'
'}\\'
'turb'
'208^_'
'EXT'
'720_'
'Unit'
'Money^_'
'JP'
'passes_'
'simplify'
'1077'
'interpolate'
'Super'
'hab'
'cul'
'Checksum^_'
'1088'
'nltk_'
'COLO'
'getc'
'Arn^_'
'1255'
'nz^_'
'sq_'
'referenced^_'
'psf'
'REGION'
'quoted^_'
'deal^_'
'wms'
'Pu^_'
'cred'
'Num'
'gete'
'Sock'
'={'
'partner\u^_'
'pap'
'\u][^_'
'Look'
'red\u^_'
'ATION_'
'hide\u^_'
'sq^_'
'Mask'
'got\u^_'
'sty'
'ILE^_'
'iterate^_'
'shin'
'assert'
'2r'
'varname_'
'OC^_'
'====='
'DEPTH'
'AST'
'".'
'Ek'
'0006'
'Cap'
'ina^_'
'PAGE^_'
'STO'
'rod'
'jh'
'LOGIN\u^_'
'opo'
'FILENAME_'
'dac'
'900^_'
'Confirm^_'
'STATE_'
'1253'
'Enable_'
'MOT'
'FULL^_'
'LEVEL^_'
'mber^_'
'>)'
'atlas'
'Edit'
'r\u\u^_'
'merged\u^_'
'Rpc^_'
'Fc'
'tack'
'Typical^_'
'zer'
'Yo'
'Clear'
'llo^_'
'Xf'
'Jun^_'
'hai'
'Independent^_'
'∅ri'
'XM'
'Seri'
'RED_'
'a3'
'Declaration_'
'mbo'
'M1'
'upa'
'CTG'
'kol'
'mixed^_'
'lie'
'ecu'
'Shu^_'
'seg^_'
'Hist^_'
'macros_'
'ces^_'
'Yo^_'
'submodule_'
'hen^_'
'nwi'
'vit'
'outline^_'
'soft^_'
'explain'
'wave_'
'Crypto^_'
'Xiao^_'
'mst'
'yli'
'tri^_'
'501_'
'Association^_'
'0x1d'
'potential'
'pn^_'
'778_'
'paren'
'protect'
'vtk_'
'jam^_'
'partitions_'
'"--------------^_'
'cons_'
'rut'
'warn'
'Previous^_'
'inode'
'dfit^_'
'CAM'
'ntu'
'mpt'
'ORY'
'Boost^_'
'Email_'
'tr\u^_'
'WHITE'
'Centr'
'digit'
'runtime\u^_'
'Form'
'Ticket^_'
'transfer_'
'interp'
'mim'
'memcache'
'bulk\u^_'
'TABLENS_'
'decode'
'release'
'compound^_'
'Ans'
'dll_'
'clone\u^_'
'Ann'
'10._'
'contains\u^_'
'arp'
'ordinal'
'learn^_'
'IGN'
'cpp'
'27.'
'strain'
'REQUEST\u^_'
'SDK^_'
'Hel'
'crea'
'DIA'
'Tasks^_'
'mapp'
'aim'
'BAL'
'gga'
'Pea'
'refine'
'Tu^_'
'poc'
'uce^_'
'c∅^_'
'nfo^_'
'E+0'
'self'
'fact'
'HTTPS^_'
'pyi'
'els^_'
'HAL'
'Tim'
'startup^_'
'ARGS_'
'amazon^_'
'blk'
'LATE'
'ional^_'
'Tho'
'lbl^_'
'moi'
'mente^_'
'ldap\u^_'
'kodi'
'drivers^_'
'decompress'
'till'
'ADV'
'cvs'
'Patient^_'
'padx_'
'osm'
'Lian^_'
'AAT'
'than'
'serializer\u^_'
'Latin'
'Md'
'mall^_'
'Demo'
'hes'
'0.41'
'\u\u*^_'
'Cal^_'
'description\u^_'
'Chem'
'synchronize'
'fastq^_'
'iot'
'ENV'
'looks^_'
'tend'
'coll_'
'Sp^_'
'301^_'
'boto'
'increment_'
'ount'
'Launch^_'
'decl_'
'a7'
''(\\'
'Var'
'Ka^_'
'employee'
'&&'
'ncy^_'
']))'
'includes_'
'superuser^_'
'BASE^_'
'numa'
'1j_'
'LIB^_'
'{})'
'regi'
'Ry'
'algo_'
'ppl'
'vert^_'
'MK'
'EXTERNAL'
'EXIT'
'lda'
'mysql_'
'banner^_'
'r1'
'82.0_'
'mqtt'
'addon^_'
'mo\u^_'
'MOD'
'0008'
'expired^_'
'fmt\u^_'
'Label'
'VF'
'sound'
'SIZE\u^_'
'sdi'
'answers^_'
'dex_'
'hy^_'
'uniq'
'equal'
'Cv^_'
'0.66'
'autoc'
'starte'
'soa'
'supports\u^_'
'fluid'
'ck\u^_'
'QUERY^_'
'percentage_'
'cali'
'goto^_'
'curve\u^_'
'0002^_'
'Where^_'
'Logged^_'
'tokenizer_'
'r2'
'xaxis_'
'ming^_'
'locali'
'NW'
'Hardware^_'
'EST^_'
'bold_'
'Rei'
'peg'
'mari'
'market_'
'entre'
'tore'
'toolset^_'
'lcapi^_'
'Nothing^_'
'MQ'
'oper'
'submitted^_'
'small\u^_'
'Free'
'Esta'
'Disabled^_'
'tmpl\u^_'
'FILTER^_'
'REQ'
'sta^_'
'ive_'
'roup'
'datum_'
'rabbit'
'ption'
'edit'
'                 _'
'ond^_'
'CMD_'
'procedure^_'
'deli'
'deck'
'declarative'
'PROPERTY'
'SIN'
')+'
'"{'
'delimiter^_'
'tn^_'
'domain'
'VS^_'
'xor'
'rede'
'suc'
'vil'
'midi'
'maxi'
'Temp_'
'Bottom^_'
'schema'
'psi^_'
'immediately^_'
'checked_'
'Gen_'
'face'
'cv\u^_'
'ell'
'replay\u^_'
''''
'fecha'
'digest'
'Gam'
'Pay'
'Ship'
'Distance_'
'alf'
'probability_'
'mean'
'})"_'
'cname_'
'Raised^_'
'x2'
'lint_'
'cu^_'
'TEXTURE\u^_'
'ency'
'LIBS'
'VERTICAL_'
'ole^_'
'Youtube^_'
'Simulation^_'
'discover'
'Anima'
'slices_'
'restore_'
'1085'
'nla'
'TON'
'nl_'
'116^_'
'elems_'
'controllers_'
'stdout\u^_'
'dec\u^_'
'MOVE^_'
'wallet^_'
'erb'
'GY'
'relat'
'others^_'
'cls'
'LW'
'bes'
'Stre'
'place\u^_'
'Nova^_'
'Ea^_'
'refi'
'cal\u^_'
'vy'
'Ru^_'
'Ready^_'
'EX_'
'Company^_'
'ols_'
'Takes^_'
'pname_'
'LOAD^_'
'Allocate^_'
'improve'
'%\\^_'
'0x2C'
'Plain^_'
'voc'
'uuid\u^_'
'mailto^_'
'context'
'State'
'als'
'feature'
'modification^_'
'fj'
'Design'
'∅m'
'specific'
'gab'
'oss^_'
'BOOK'
'tile'
'earn'
'xr_'
'Nan'
'primary_'
'health'
'Draw'
',)'
'ERN'
'GCG'
'voice'
'COPY^_'
'Epi'
'keyboard^_'
'snippet_'
'Ab^_'
'uls'
'Samba^_'
'talk^_'
'pg\u^_'
'Document'
'warm'
'clouds'
'overlap^_'
'hh^_'
'0xff'
'Writing^_'
'databases^_'
'multipart^_'
'0.62'
'Kal'
'serv'
'Sample_'
'internet_'
'question'
'Pie'
'Dea'
'pyu'
'graphic^_'
'fff^_'
'ESS^_'
'often^_'
'tipo^_'
'contribution'
'BITS'
'catalog'
'126^_'
'detailed^_'
'colon'
'decorated'
'Fire^_'
'say'
'ATION\u^_'
'JPEG^_'
'{:.^_'
'Lib'
'fail'
'whi'
'seed\u^_'
'optimize_'
'MESSAGE_'
'vfs_'
'Cloud'
'onte'
'165^_'
'Bid^_'
'?('
'smart^_'
'jen'
'LED^_'
'orc'
'outcome'
'dz^_'
'psy'
'Ap^_'
'/**'
'Manifest^_'
'3c'
'Times^_'
'pull\u^_'
'matt'
'icmp^_'
'cnn'
'Demo^_'
'Esc'
'zu^_'
'maintain'
'ece'
'xco'
'118^_'
'maybe\u^_'
'thick'
'Generates^_'
'street'
'ation'
')='
'newline^_'
'catalog\u^_'
'Ele'
'UL^_'
'trial_'
'gpu\u^_'
'nance'
'TCC'
'cms'
'yrs^_'
'[{'
'cip'
'confirm_'
'insn_'
'∅te'
'multiarray^_'
'phe'
'decr'
'atomic^_'
'Production^_'
'dispatch^_'
'isk'
'Param'
'phy^_'
'receive\u^_'
'nr\u^_'
'q1_'
'Vector'
'Err'
''))^_'
'och'
'uin'
'YEAR'
'Zhen^_'
'videos_'
'tostring_'
'sh\u^_'
'Ent^_'
'office'
'nom^_'
'metrics\u^_'
'WARE'
'Loc'
'ellipse'
'posterior'
'normalized\u^_'
'benchmark^_'
'Lab^_'
'tower'
'Children^_'
'libp'
'contacts_'
'Mis'
'ips'
'Pla'
'ull'
'DON'
'oft'
'kick'
'bullet'
'specifier'
'11111'
'lxml_'
'Scale'
'dashboard_'
'nose^_'
'sax'
'ran^_'
'unquote_'
'fps_'
'applies^_'
'preprocessor'
'nickname^_'
'New_'
'Twi'
'zeros\u^_'
'fastq'
'comic'
'amazonaws^_'
'XY^_'
'fk^_'
'subf'
'cz^_'
'Mutable^_'
'rif'
'given\u^_'
'YEAR\u^_'
'RV'
'door^_'
'Cluster_'
'AAAAA'
'Hin'
'DEL'
'oss'
'idxs_'
'resize\u^_'
'myc'
'ec2_'
'RUN'
'0.93'
'GH'
'generator\u^_'
'relu_'
'."^_'
'equ'
'JOB'
'g2_'
'Cred'
'transf'
'prevent^_'
'Relation^_'
'trea'
'cong'
'0xE0_'
'vstack_'
'e1'
'dad'
'"}"_'
'interaction^_'
'GAC'
'GTG'
'DEV'
'sf\u^_'
'sei'
'mz'
'Pr^_'
'3d'
'Hai'
'/"'
'Esp'
'HOR'
'pdi'
'handle'
'/.'
'0.39'
'RED^_'
'ASC'
'english^_'
'exceed'
'IMG'
'passed_'
'73'
'Tm'
'cidr^_'
'heli'
'popup^_'
'1400'
'000'
'YO'
'App'
'CTION'
'-----'
'busy'
'MEA'
'Fli'
'nclass^_'
'UNA'
'Bs^_'
'mdi'
'filec'
'0x002'
'33.'
'REM'
'Sa^_'
'checkout^_'
'byte'
'nif'
'cov^_'
'+)\\'
'NETWORK^_'
'igat'
'wit'
'geom'
'vmin_'
'bump'
'tech^_'
'statuses_'
'ill'
'yz^_'
'Inner^_'
'ware^_'
'ini_'
'gap^_'
'camel'
'Logo'
'cid^_'
'modifier_'
'ntl'
'Gai'
'Headers_'
'single'
'Toggle^_'
'TM^_'
'varia'
'dol'
'Xs'
'ch∅'
'FOLDER_'
'cess'
'\\"%^_'
'bases^_'
'CLASS\u^_'
'Was'
'Tf'
'observation^_'
'[(^_'
'MESSAGE\u^_'
'datetime'
'notifications_'
'lta'
'prep'
'mass\u^_'
'YW^_'
'backref_'
'FILL'
'previously^_'
'Rd^_'
'IV^_'
'tex_'
'revoke'
'pris'
'EXECUT'
'}:{^_'
'ea_'
'limitations^_'
'Of'
'DATABASE\u^_'
'flip_'
'Ethernet^_'
'Bh'
''\\''_'
'raph'
'kafka'
'Dist_'
'Neg'
'freqs_'
'brand'
'ILL'
'acs'
'0.60'
'proportion'
'cant'
'combine^_'
'particle^_'
's0_'
'MX^_'
'Abs'
'389_'
'carr'
'vx'
'receive_'
'visited_'
'morph'
'rray_'
'mate'
'elements\u^_'
'nsub'
');'
'upc'
'txn_'
'lot_'
'``)^_'
'WINDOW^_'
'020^_'
'Quota^_'
'cea'
'0xFE'
'Home'
'PORT\u^_'
'ql_'
'coords^_'
'VARCHAR^_'
'PLE'
'less_'
'Neutron^_'
'urlresolvers_'
'gate^_'
'ench'
'ass^_'
'persona'
'chrome^_'
'tiv'
'cst'
'linestyle_'
'padded'
'window'
'ESP'
'BASIS^_'
'Ul'
'meeting'
'sport'
'scheduled^_'
'Libraries^_'
'sampled'
'DOT'
'rect'
'Import'
'film'
'0.43'
'pem'
'TAB^_'
'Groups_'
'0.42'
'Wor'
'challenge^_'
'cube^_'
'Runner^_'
'DATE_'
'Effect^_'
'2n'
'xfa'
'prog'
'poi'
'Arch'
'NZ'
'>{^_'
'Conditional^_'
'0.54'
'cha^_'
'gir'
'"],^_'
'true'
'gml^_'
'Clean'
'receipt'
'na\u^_'
'TL^_'
'trial^_'
'tml'
'north^_'
'near^_'
'0123456789^_'
'eter'
'Sun'
'NB^_'
'offs'
'kan^_'
'cim'
'gree'
'Cw^_'
'Hong^_'
'ping\u^_'
'HASH'
'women^_'
'height\u^_'
'Jiangsu^_'
'tj'
'ook^_'
'monitoring^_'
'attachments^_'
'Compile^_'
'mul^_'
'null'
'kli'
'Limit_'
'-('
'rules\u^_'
's∅^_'
'subplots_'
'Licensed^_'
'jsonrpc'
'hange'
'Incorrect^_'
'Tun'
'transformed^_'
''..'
'Segment_'
'Minor^_'
'i1'
'Global_'
'TGA'
'sy^_'
'#%^_'
'flag'
'VOL'
'Thing'
'invt'
'friends^_'
'Instr_'
'TTG'
'Off_'
'FLAG\u^_'
'032^_'
',}'
'XXX^_'
'Evaluat'
'Scene_'
'nio'
'Upper^_'
'eat'
'mig'
'inte'
'*''
'CGC'
'ADJ'
'Conv^_'
'Ide'
'Ki^_'
'0xFD'
'MOV'
'ped'
'GTA'
'Cau'
'138^_'
'FM'
'negative\u^_'
'irc_'
'vda'
'Inline_'
'/''
'bbb^_'
'ACK'
'lbl_'
'BAD^_'
'slow^_'
'Dock^_'
'codon'
'RR^_'
'stand'
'slicing^_'
'phrase^_'
'anon'
'Cut'
'NEG'
'Mel'
'Gn'
'Leave^_'
''(('
'Zm^_'
'Jin'
'Qk^_'
'LEN_'
'Sort'
'pel'
'=\\'
'magic_'
'United^_'
'pig'
'story_'
'ye^_'
'newaxis_'
'reason'
'importer_'
'compress_'
'Algorithm_'
'SON'
'Doc'
'successful'
'Strict^_'
'Sou'
'Rating^_'
'"{{^_'
'setattr\u\u_'
'8000_'
'ample'
'Pass'
'finalize'
'cx^_'
'describing^_'
'Click_'
'"?'
'1E'
'YL'
'terminate_'
'rates^_'
'Defe'
'NODE\u^_'
'uct'
'Bes'
'418'
'sus'
'UND'
'off'
'ntra'
'CLR^_'
'unsupported^_'
'outer_'
'pth'
'sky^_'
'formatter^_'
'mods_'
'GX'
'unta'
'sage^_'
'hydro'
'Rest'
'postgresql^_'
'execution_'
'ris^_'
'regression'
'lus^_'
'uuids_'
'302^_'
'XP^_'
'fixed_'
'Tk_'
'-{}'
'thou'
'abo'
'SMALL^_'
'erp'
'MO^_'
'nice'
'READ_'
'alternative^_'
'sheet\u^_'
'!)'
'nil'
'cmath^_'
'Jan^_'
'entropy_'
'mismatch^_'
'Fourier^_'
'+-----------+--^_'
'clas'
'aligned^_'
'wf_'
'cia^_'
'multic'
'PAC'
'pca'
'...,^_'
'corr_'
'mongo'
'uit'
'perp'
'HT^_'
'/]+/'
'Blend'
'Mg^_'
'Frame'
'pic^_'
'tape'
'rame_'
'myf'
'test\u\u^_'
'2m'
'spawn_'
'kha'
'contra'
'Surface_'
')[^_'
'Plane^_'
'uat'
'BOARD'
'food'
'Flush^_'
'stance'
'encoder^_'
'merc'
'generating^_'
'cl\u^_'
'leak'
'yy'
'publication'
'lla^_'
'routing\u^_'
'raises\u^_'
'onal'
'Lan^_'
'nand^_'
'entry'
'filesize^_'
'0.49'
'pher'
'ski'
'nci'
'START\u^_'
'kind'
'builtin\u^_'
'Operations_'
'DES'
'iam^_'
'ctype^_'
'Mapper_'
'OS_'
'5.0'
'\u\\'
'tall'
'UE^_'
'Blueprint_'
'operati'
'cassandra'
'metaclass^_'
'vou'
'webs'
'eg_'
'Spin'
'delim_'
'datafield^_'
'guide'
'rc\u^_'
'aca'
'SORT'
'remaining\u^_'
'market^_'
'Dec^_'
'ba_'
'review'
'/+^_'
'opera'
'ert^_'
'JP^_'
'qt\u^_'
'Utils^_'
'nno'
'unp'
'lity^_'
'AAAA^_'
'iso8601_'
'about_'
'ted\u^_'
'ending^_'
'amp_'
'b0'
'amo'
'observer'
'charge_'
'Jin^_'
'QQ'
'elle'
'village'
'tai'
'sets'
'activation\u^_'
'mime\u^_'
'gap'
'-----------+---^_'
'overrides^_'
'ITEM^_'
'fff'
'cher'
'768_'
'grade^_'
'tric'
'logg'
'Xd'
'alphabet_'
'Machine_'
'tv_'
'Drop'
'unavailable^_'
'platforms_'
'oh^_'
'got'
'YOU'
'yer'
'Addr_'
'infra^_'
'deleted\u^_'
'variant\u^_'
'1e-'
'KC'
'sel\u^_'
'allocation^_'
'tude'
'Yun^_'
'click\u^_'
'0100'
'usi'
'|\u'
'timeseries'
'rg_'
'ffi_'
'ALPHA'
'Pane'
'esto'
'blink'
'gos'
'Atten'
'tors'
'teams_'
'ank'
'*]'
'"*.^_'
'BLA'
'regression^_'
'``*'
'types'
'wrapped_'
'IMPL'
'tof'
'broker_'
'obe'
'Zoom^_'
'PQ'
'pants'
'2009_'
'rag'
'Oe'
'CCG'
'collapse'
'Medi'
'Advanced^_'
'Yang^_'
'alb'
'ram'
'omega_'
'ALL'
'0b'
'fld'
'}}"_'
'attempts^_'
'instructions^_'
'dbi'
'seat'
'neq'
'intro'
'catch'
'Scenario^_'
'PEP^_'
'tribut'
'nma'
'logi'
'delay\u^_'
'AUTH'
'639'
'encrypt_'
'cnf'
'TGC'
'FUNC'
'ysi'
'CARD'
'LEVEL_'
'Bus'
'eso'
'staff_'
'bond^_'
'FOUND_'
'20130'
'dropout_'
'Accept'
'msd'
'lazy\u^_'
'photos^_'
'ILI'
'Thread'
'3100'
'*)'_'
'vw'
'SECOND'
'vag'
'PX'
'mq^_'
'HTTP'
'EMAIL^_'
'ne\u\u_'
'workspace\u^_'
'deleting^_'
'{!^_'
'oso'
'0.44'
'vid_'
'Spark^_'
'principal^_'
'DNS'
'mission'
'buffer'
'119^_'
''%.^_'
'providing^_'
'pathname^_'
'169^_'
'"&"_'
'tell^_'
'TTA'
'.[^_'
'RAN'
'At_'
'existe'
'south^_'
'Journal^_'
'WN'
'histo'
'era^_'
'Rank'
'matic'
'usable^_'
'plugin'
'cut\u^_'
'(?='
'TW^_'
'molecule_'
'backups'
'CLA'
'62'
'consider^_'
'acl\u^_'
'transforms_'
'tari'
'btc'
'imports^_'
'="'_'
'METRIC'
'Keep^_'
'itor'
'viewport'
'Heap^_'
'>`\u^_'
'aka'
'none\u^_'
'THI'
'kml'
'pymongo_'
'gb_'
'datum^_'
'MET'
'pyr'
'extracted^_'
'Pet'
'Dr'
'tch^_'
'pedi'
'crop\u^_'
'taxa'
'ping'
'market'
'mp\u^_'
'Lou'
'Stream'
'A3'
'den_'
'nf^_'
'mount_'
'communicati'
'0.69'
'str2'
'condition'
'Alt^_'
''(?'
'ply'
'sqlite'
'invenio_'
'UNIT^_'
'SCS'
'143^_'
'reporter_'
'USERNAME^_'
'MES'
'coro'
'gdal_'
'Most^_'
'modal'
'">%^_'
'TEXT\u^_'
'Rn'
'Dense_'
'predictor'
'ila'
'goes^_'
'enqueue'
'reve'
'ano^_'
'Im^_'
'rdf'
'hybrid'
'ssid'
'ipv6\u^_'
'ipo'
'UNC'
'Deriv'
'filtering^_'
'{:'
'pent'
'toe'
'itemgetter_'
'``<'
'tensorflow^_'
'RIT'
'OL^_'
'ADD'
'urlpatterns^_'
'hift'
'genome\u^_'
'Structured^_'
'Bou'
'uffff^_'
'SIMPLE'
'solver^_'
'n∅^_'
'SIO'
'152^_'
'extractor'
'INIT'
'ITI'
'imdb^_'
'verification^_'
'pace_'
'ges'
'ff\u^_'
'dian^_'
']``^_'
'Dv'
'Nv'
'MOD^_'
'437'
'/*'_'
'Ring^_'
'method'
'markers_'
'lve'
'istr'
'kargs_'
'statements_'
'ile'
'hands'
'Worker_'
'kis'
'Pers'
'metaclass\u\u_'
'kt^_'
'TGG'
'reme'
'presence^_'
'integrate'
'``\\''
'serial'
'mur'
'Spatial^_'
'pix_'
'bid'
'SIGN'
'}>'
'ENTITY'
'j∅'
'emails_'
'C'
'Solid^_'
'\\?'
'direct_'
'creative'
'overrides_'
'1111^_'
'both'
'Disc'
'Saint^_'
'aaa'
'vendor_'
'Tracker^_'
'invalidate'
'788_'
'pypi^_'
'yaw'
'MSG_'
'AIN'
'expose_'
'disaster^_'
'};'
'gap_'
'mixin'
'1000.0_'
'uk\u^_'
'typically^_'
'fetche'
'correlation^_'
'pools_'
'133^_'
'annotate_'
'linux\u^_'
'700^_'
'neigh'
'()"^_'
'Progress_'
'tap^_'
'milestone'
'bbi'
'abbrev'
'mbl'
'Nf'
'sn_'
'LOCAL^_'
'buildbot^_'
'Wave^_'
'Playlist^_'
'\u('
'IZ'
'though^_'
'Shandong^_'
'substring^_'
'cards^_'
'losses_'
'att'
'path\u\u_'
'CHE'
'issuer'
'girl'
'robot'
'+]'
'])\\^_'
'CCT'
'getn'
'Good^_'
'Ll'
'TTC'
'DATABASE^_'
'nova'
'las'
'issues_'
'environment\u^_'
'ceil'
'Assembly^_'
'dataframe_'
'Rank^_'
'>|^_'
'duration\u^_'
'filed'
'animation^_'
'tick'
'Cent'
'aar'
'glyph^_'
'0x04_'
'cores^_'
'O0'
'uss'
'pathname_'
'ppo'
'Vec_'
'f0_'
'overrid'
'kat'
'Il'
'paginate'
'prepar'
'estimate^_'
']?'
'************'
'adb'
'texts'
'fact_'
'AAG'
'discord_'
'\\")'
'suitable^_'
'popup_'
'k2_'
'DP^_'
'Id\u^_'
'rfc'
'implicit^_'
'Lon'
'30.'
'ONLY_'
'customer_'
'fixture^_'
'Bw^_'
'snapshots^_'
'DST^_'
'csrf\u^_'
'tem_'
'Spa'
'ske'
'org'
'receiving^_'
'exports'
'lete'
'referr'
'"\\\\'
'Active_'
'uy'
'imagen'
'VI^_'
'plug'
'ldi'
'ott'
'tutorial^_'
'3e'
'TITLE^_'
'080^_'
'measure'
'cipher'
'filem'
'456_'
'tti'
'lay^_'
'OD^_'
'252^_'
'Floating^_'
'PERSON'
'promote'
'Dim^_'
'lista^_'
'bank_'
'Tha'
'shlex_'
'MT\u^_'
'POS^_'
'rol'
'BN'
'sx_'
'443_'
'cookies^_'
'Const^_'
'Australia^_'
'OTHER'
'testfile'
'e-1'
'&\\^_'
'ock'
'Y2_'
'embedding\u^_'
'snr'
'7.5'
'auto_'
'parallel_'
'widths_'
'fall^_'
'Construct'
'pick^_'
'weapon'
'runs'
'Path'
'CENT'
'arithmetic^_'
'RNA^_'
'0x2c_'
'agi'
'0.52'
'tip'
'declare^_'
'github\u^_'
'Bee'
'k∅^_'
'shp'
'hist^_'
'Pol'
'PHO'
'vary'
'GCT'
'indexer'
'machines^_'
'IX'
'INA'
'040^_'
'onc'
'ike'
'adr'
'students'
'eal'
'139'
'VIEW'
'HF'
'Both^_'
'BUTTON'
'ufunc'
'agreed^_'
'WL'
'FH'
'hare'
'append'
'COL\u^_'
'authorized^_'
'Mas'
'Obj'
'Format'
'posta'
'FORCE'
'rng^_'
'Track_'
'osv_'
'DDI^_'
'suppress'
'Dim'
'EDGE'
'Star^_'
'rave^_'
'properties\u^_'
'nip'
'POINT'
'0.70'
'Sens'
'KC^_'
'ink'
'extended\u^_'
'zy^_'
'Fp'
'snapshots_'
']\u'
'Greek^_'
'implicit'
'Toon'
'yco'
'wkdir^_'
'arabic^_'
'FAST'
'BOX^_'
'teri'
'charge'
'league'
'ENV^_'
'paste^_'
'Plu'
'overridden^_'
'BOOL_'
'qs^_'
'CANCEL'
'://"_'
'kx'
'OS\u^_'
'extractor_'
'baseline^_'
'BN^_'
'translations_'
'ju^_'
'changelog'
'myt'
'83.0_'
'sym^_'
'uar'
'ofs'
'LANGUAGE\u^_'
'0x1EE'
'shorten'
'abl'
'}\\"'
'Fou'
'320^_'
'rfind_'
'SLI'
'Facility^_'
'SE_'
'pep'
'graf'
'Neu'
'active'
'Like'
'means_'
'Sand'
'mbr'
'SOURCE\u^_'
'onto^_'
'limit'
'diag^_'
'harvest'
'Ling^_'
'allow'
'Burst^_'
'ne\u^_'
'pti'
'startt'
'prior_'
'introduce'
'fname^_'
'addp'
'sy_'
'Drive^_'
'predictions^_'
'ture^_'
'Vehicle^_'
'Actor_'
'attack^_'
''\\('
'prod'
'Tester_'
'21.'
'endian_'
'fp\u^_'
'Motion^_'
'INF'
'215^_'
'male^_'
'riv'
':['
't∅^_'
'gender_'
'boost'
'cua'
'tot_'
'lut'
'bag'
'wf\u^_'
'corrected'
'patient'
'NY^_'
'negative_'
'branch'
'variation'
'e-05_'
'ize\u^_'
'devi'
'E3'
'XML'
'PERIOD'
'smaller^_'
'Peer'
'nic'
'BER'
'simulation_'
'503_'
'arn^_'
'Arch^_'
'Ui'
'adc'
'Ask^_'
'/>'
'erio'
'mpls^_'
'99999'
'door'
'GIT'
'0.15_'
'PER^_'
'signal'
'give'
'777'
'plus'
'elm'
'doctype_'
'oc\u^_'
'predict^_'
'oner'
'mach'
'AME^_'
'Kp'
'trail'
'bill^_'
'Proj'
'proceed'
'TOOLS^_'
'radio_'
'hat^_'
'PAT'
'hod'
'ICON'
'BEA'
'checker'
'elf'
'Changes^_'
'Setup_'
'Vars_'
'ldap_'
'Mono'
'cores_'
'validator^_'
'tory^_'
'000001'
'accessible^_'
'Availability^_'
'JB'
'objc'
'sink_'
'abort'
'SIM'
'#\u^_'
'silent_'
'zmq_'
'disp_'
'restricted^_'
'pady_'
'ints_'
'enci'
'personal^_'
'subj'
'possibly^_'
'optimization^_'
'f∅'
'vms'
'Fro'
'Um'
'parents^_'
'oul'
'},'
'Access_'
'0x1000'
'ula'
'prof'
'chance'
'lst^_'
'hist\u^_'
'ior'
'ife'
'Workspace_'
'Iter_'
'0x26'
')>'
'lex'
'grp^_'
'arge'
'Jc'
'axi'
'Z\u^_'
'Curr'
'keyval'
'Cart'
'kana'
'hstack_'
'friendly^_'
'toon'
'vot'
'Peak^_'
'cam^_'
'Alpha'
'isti'
'ring'
'xticks_'
'universal'
'Assign'
'monster'
'tvdb'
'nat^_'
'foreign\u^_'
'rtol_'
'pur'
'131^_'
'arb'
'markdown^_'
'enu'
'may'
'vod'
'ndo^_'
'**'_'
'household'
'Sho'
'msi'
'Rc'
'dou'
'tbody^_'
'rank'
'invi'
'321_'
'pse'
'Parsing^_'
'elem\u^_'
'States_'
'.2_'
'Conta'
'viewer^_'
'arma'
'6500'
'266_'
'zulip^_'
'ebe'
'Pn'
'sale^_'
'feedback^_'
'ITY'
'kl^_'
'Indicator^_'
'outs_'
'triangle^_'
'expiration^_'
'Lte^_'
'LI^_'
'"&#^_'
'protein'
'pod^_'
'CFG^_'
'tweet^_'
'caffe'
'Top'
'uncon'
'erv'
'257_'
'based'
'Print'
'flight'
'SAT'
'aux\u^_'
'bypass'
'alan'
'0111'
'Parm^_'
'mnist'
'Tb'
'daemon'
'SEM'
'mapper^_'
'cse'
'contract_'
'ht_'
'rne'
'Vs^_'
'Cancel'
'coeffs_'
'REAL'
'9633^_'
'nd\u^_'
'complex\u^_'
'ens^_'
'except'
'evidence'
'osd'
'Js'
'sop'
'ENO'
'processing_'
'WC_'
'Eng^_'
'750_'
'movie'
'fan^_'
'review_'
'Sent'
'pattern'
'Attachment^_'
'vad'
'digital^_'
'omni'
'zones_'
'dre'
'Corp'
'Pun'
'KH'
'>.*)'
'"\\"'
'Mean'
'legacy\u^_'
'cg^_'
'vector'
'Blog^_'
'nov'
'Cw'
'tracer'
'friend'
'accepts^_'
'menta'
'Image'
'trash'
'Figure^_'
'Bitmap_'
'pkgs_'
'oth'
'corner'
'ctor'
'<'_'
'Behavior'
'placed^_'
'plane_'
'eit'
'VARIABLE'
'0.47'
'trop'
'pump'
'Sie'
'pink^_'
'Care'
'0x80'
'>\\'
'303_'
'alm'
'Metrics^_'
'RESULT\u^_'
'Incident^_'
'EXIST'
'edia'
'.('
'ity\u^_'
'Jv'
'Stage^_'
'eye_'
'Ws'
'JF'
'ZG^_'
'Spectr'
'?://'
'Zs'
'mpl_'
'CALL^_'
'Flavor'
'ec2\u^_'
'ress^_'
'wis'
'actor\u^_'
'822'
'rsh'
'health\u^_'
'/]'
'West^_'
'secondary\u^_'
'Compiler^_'
'quota'
'RTL^_'
'chunk'
'Vl'
'react'
'Logical^_'
'tempo'
'Sup'
'impos'
'Integrat'
'D2'
'rite'
'revi'
'Force'
'cipher_'
'master'
'Transition^_'
'iso_'
''!'
'AMP'
'Subclass'
'cine'
'Ft'
'gnu'
'sdk_'
'natural^_'
'ivo'
'.00'
'unary^_'
'Cf'
'loaded\u^_'
'Ship^_'
'glob'
'Vu'
'ENTI'
'dry^_'
'classic'
'Register_'
'bottle'
'bl_'
'nump'
'LES'
'ERT'
'openg'
'ccess'
'Nm'
''::^_'
'|%^_'
'Github^_'
'filein'
'cca'
'Long'
'cpr'
'rss'
'arr\u^_'
'PENDING'
'pmi'
'Prompt'
'redirect'
'sett'
'Dependency^_'
'torrent\u^_'
'dod'
'ADD\u^_'
'∅t^_'
'fullpath_'
'AX^_'
'hyphen'
'unin'
'restart_'
'Wf'
'phone\u^_'
'dept'
'openf'
'foreach'
'bandwidth^_'
'ther^_'
'roots_'
'Numpy^_'
'Sleeping^_'
'Cog'
'cron^_'
'autop'
'lina'
'Dm'
'Alert'
'sublime_'
'small'
'POLL'
'Distributed^_'
'STRUCT_'
'Rea'
'141^_'
'Attach^_'
'/\\'
'tto'
'logy^_'
'GTT'
'amount\u^_'
'oj'
'itervalues_'
'ily^_'
'discovery^_'
'Sf'
'Float'
'erver_'
'acquire'
'radio'
'cam_'
'stp'
'WEE'
'amin'
'reca'
'kz'
'245^_'
'lq'
'Ansible^_'
'dirty_'
'vis^_'
'dhcp\u^_'
'sube'
'0.58'
'ruby^_'
'testa'
'ars'
'DNA^_'
'bots'
'ENTER'
'1001_'
'loads^_'
'Cin'
'Hm'
'password'
'SEQ'
'1d'
'opp'
'Canvas^_'
'sdk^_'
'gff'
'iq'
'$\u'
'Debug_'
'1251^_'
'onv'
'dent'
'EQUAL'
'Wc'
'recipient_'
'Protocol'
'mime_'
'chs'
'nonce_'
'750'
'Lines^_'
'ACL^_'
'dc\u^_'
'GROUP_'
'eac'
'attrib^_'
'zo^_'
'ORI'
'grant^_'
'Weight'
'276_'
'Updating^_'
'777_'
'0x58_'
'\\'{'
'EW'
'b64decode_'
'HW'
'157^_'
'DEBUG\u^_'
'cash'
'craft^_'
'sympy_'
'tatus'
'Sql'
'AGENT'
'eed'
'dg^_'
'lter'
'Couldn^_'
'?]'
'steam'
'tpg^_'
'INSTANCE'
'>&^_'
'ITER'
'Provide'
'413_'
'Deferred^_'
'Vy'
'just'
'albums'
'eh^_'
'aur'
'tank'
'POS'
'Layers^_'
'Serial_'
'purge'
'D1_'
'5.3'
'Tens'
'opening^_'
'colname'
'Lim'
'@{'
'tam'
'arse'
'Mer'
'backp'
'elt_'
'squares'
'!!^_'
'periods_'
'brief^_'
'acos'
'Cri'
'\u\u\u\u\u'
'troop'
'OPTION'
'correlation'
'PUT'
'IES_'
'posts'
'hea'
'ICT'
'nodes'
'Fail'
'Sx'
'assessment^_'
'publication^_'
'kas'
'COMMIT'
'CONV'
'supported_'
'4.9'
'VIEW^_'
'],[^_'
'reversed^_'
'orphan'
'0x0000000'
'modul'
'conse'
'uple'
'ALLOW'
'compl'
'm3'
'openssl^_'
'replacement_'
'exclude'
'Stack'
'Join'
'ISC'
'Peri'
'yl'
'SCHEMA_'
'625_'
'tang'
'corrupt'
'155^_'
'\u)'
'ock^_'
'diagram'
'IDL^_'
'ald'
'640'
'WHE'
'csvfile_'
'analog'
'u\u'
'Pon'
'osh'
'ra\u^_'
'lue^_'
'reso'
'ENS'
'820'
'unary\u^_'
'rang'
'lastname'
'modes^_'
'429'
'198^_'
'ofp'
'mon'
'Hum'
'SAMPLE\u^_'
'"$'
'af_'
'RRBS^_'
'tors^_'
'cola'
'dial'
'b1'
'kv_'
'Bp'
'halt'
'Weight_'
'assignments^_'
'FK'
'REMOVE'
'Defines^_'
'reach'
'798'
'ATOM^_'
'REP'
'hos'
'e6'
'4.6'
'sibling'
'snap_'
'CTT'
'yaxis_'
'getco'
'Ability^_'
'browse^_'
':*'
'261_'
'Execute'
'###^_'
'exe\u^_'
'|@^_'
'pau'
'sides'
'datac'
'vault^_'
'P2'
'BIT^_'
'toi'
'Cert^_'
'LINES'
'Guard^_'
'sell'
'interact'
'KET'
'ueb'
'ITEM\u^_'
'led_'
'autodoc^_'
'TERM'
'w1_'
'pv_'
'univ'
'multiline'
'redo'
'node1_'
'AND'
'ints^_'
'Inspect'
'0.46'
'chip'
'previ'
'PKG'
'Conte'
'adapter^_'
'resu'
'dh^_'
'755_'
'emails^_'
'dl\u^_'
'ail^_'
'gor'
'meo'
'tter'
'warn\u^_'
'Guang'
'Zen'
'MJ'
'={}'_'
'fine^_'
'egress'
'Adj'
'Bru'
'ZONE_'
'bound'
'pru'
'}%'
'MQ^_'
'qos^_'
'ams'
'VQ'
'bulk^_'
'Zl'
'entity'
'START'
'tensors_'
'pager'
'9999_'
'243^_'
'conform'
'logd'
'generators_'
'svc_'
'fir'
'purchase'
'Conference^_'
'"\u'
'deps^_'
'Times'
'newi'
'UNICODE^_'
'650'
'ship_'
'rows\u^_'
'|"_'
'SCO'
'=.'
''\\.'
'increase'
'Matches_'
'galaxy'
'chil'
'ADMIN\u^_'
'ody'
'weight'
'trace'
'aes'
'pv^_'
'ltr'
'extend'
'tries_'
'screenshot'
'rust'
'ntype'
'py2'
'Sect'
'D3^_'
'KB'
'pour^_'
'par\u^_'
'coin^_'
'136^_'
'raid'
'general\u^_'
'optionally^_'
'Prog'
'valu'
'mpa'
'Sv^_'
'sptr\u^_'
'"∅∅∅∅∅∅∅∅"_'
'sten'
'boy'
'/[\u\u\uCARET\u\u\u'
'apa'
'BAN'
'ure\u^_'
'codec'
'Choreo^_'
'utm'
'replica^_'
'ooo'
'OWNER'
'vdi'
'ove'
'*=\\^_'
'fm^_'
'embedded^_'
'ulo'
'pli'
'filelist_'
'operate'
'ISE'
'Eff'
'Lh'
'fm_'
'objects\u^_'
'NOR'
'tweets_'
'Access'
'scm'
'uv^_'
'PROFILE'
'SYS\u^_'
'association^_'
'Bill'
'destruct'
'042^_'
'however^_'
'PYTHON'
'dad^_'
'Lex'
'fat'
'results'
'late^_'
'2008_'
'Statistic'
'EMB'
'hur'
'QM'
'decide'
'broadcast\u^_'
'ane^_'
'288_'
'ledge'
'F5'
'interpolation_'
'sad'
'annotation\u^_'
'jur'
'rectangle_'
'teu'
'jquery^_'
'endo'
'Manage'
'scaled^_'
'joined'
'tou'
'vre'
'ror^_'
'0.78'
'u\u\u\u\u\u^_'
'through'
'ngs'
'260^_'
'ter\u^_'
'reco'
'ipv4\u^_'
'T1_'
'zab'
'Tube^_'
'Ale'
'T1'
'ZU'
'LOW'
'suggest'
'Prepare^_'
'elif^_'
'INTERFACE'
'subtitle_'
'Heat^_'
'Ej'
'Hl'
'ASE'
'badge'
'ngs^_'
'77'
'0x14'
'interpolation^_'
'Trace'
'false\u^_'
'b4'
'tuple\u^_'
'esh'
'cbb^_'
'arn'
'Templates^_'
'wheel^_'
'MAL'
'[~^_'
'ture'
'gue^_'
'Reports^_'
'Eg^_'
'SIGN^_'
'MASK_'
'Handles^_'
'Paginat'
'Article_'
'checkin'
'OFF_'
'40000'
'nra'
'Por'
'EXEC'
'dk^_'
'neighbor^_'
'Critical^_'
'grp'
'directories_'
'wizard^_'
'fallback_'
'vertical'
'tot^_'
'YAML^_'
'Robot^_'
'Vh'
'hebrew^_'
'dhcp'
'gn_'
'Molecule_'
'TN'
'///^_'
'msv'
'demand'
'zer_'
'dec'
'Glob'
'148^_'
'sos'
'pwm'
'derivative'
'Wu'
'colour'
'XC'
'Identifie'
'Clos'
'coc'
']+('
'ACCEPT'
'grade'
'insu'
'numera'
'fonts^_'
'rex'
'vz'
'EU'
'Gz'
'nym'
'ases'
'managed'
'esca'
'filesystem_'
'episodes^_'
'Math'
'patched'
'Fra'
'stall'
'filer'
'-------------+\\^_'
'whe'
'SW^_'
'bean'
'039^_'
'intf'
'XY'
'userid^_'
'Started^_'
'ordered_'
'come'
'remain'
'oj^_'
'BUCKET'
'Bot_'
'LIMIT_'
'heap_'
'f5'
'outfile^_'
''])^_'
'repeated'
'QUI'
'Cons^_'
'∅re'
'dependency\u^_'
'family\u^_'
'"*'
'combinations_'
'caches'
'310_'
'stretch'
'\u\u``'
'invalid'
'suffixes_'
'integer\u^_'
'usera'
'obl'
'nodeid'
'chapter^_'
'PID'
'74'
'grace'
'Uk'
'Lar'
'experience'
'"+'
'Focus_'
'ITE'
'pyco'
'SWIG^_'
'CHANNEL'
'Pil'
'nha'
'372^_'
'tty^_'
'pan^_'
'STDOUT_'
'invest'
'Origin'
'wsdl^_'
'mult_'
'Xml_'
'national'
'FALSE^_'
'sema'
'colored^_'
'5.6'
'style'
'enter\u\u_'
'w2_'
'vg^_'
'Moment'
'Comput'
'5.9'
'0.67'
'ess_'
':"'
'bird'
'mg_'
'gpu^_'
'35.'
'5.2'
'Percent^_'
'['_'
'dor^_'
'pdb\u^_'
'spring'
'npt'
'election'
'trade^_'
'kill\u^_'
'RULE'
'weeks'
'rtl'
'c0_'
'Disp'
'egg'
'latex^_'
'Tria'
'146^_'
'reu'
'0110'
'was\u^_'
'Xu'
'Which^_'
'multip'
'excel'
'fich'
'codigo'
'kern'
'vertices^_'
'Request'
'tested^_'
'Zk'
'tdi'
'\\">'
'\\\u'
'ESS'
'GG^_'
'resources\u^_'
'Removed^_'
'ien'
'hover'
'Fire'
'equation^_'
'codec_'
'810'
'paginator_'
'Cpp^_'
'vis_'
'Equi'
'SCH'
'dom\u^_'
'combined\u^_'
'snake'
'Business^_'
'Kit'
'Easy^_'
'freq'
'333^_'
'AVA'
'qq'
'ube^_'
'Vt'
'libr'
'{\u'
'redraw'
'specific\u^_'
'inline_'
'rfi'
'formset_'
'Restore^_'
'PROC'
'--------+------^_'
'cco'
'prove'
'ved'
'Estimator'
'transformer'
'logit'
'adds'
'275_'
'Ltd^_'
'hot_'
'LAYER'
'---+-----------^_'
'EP^_'
'TO_'
'RID'
'>{'
'vp^_'
'cnt^_'
'LR^_'
'coef'
'combobox'
'vcodec^_'
'rank\u^_'
'Tau'
'zope_'
'regs_'
'nonzero_'
'Univers'
'TCT'
'Jia^_'
'Ara'
'0.85'
'Ce^_'
'pred'
'Ali'
'particles_'
'Adv'
'iate'
'ECD'
'BLOCK\u^_'
'Af^_'
'584_'
'HPDF^_'
'walk'
'does\u^_'
'ROLE'
'eba'
'institution'
'fille'
'big\u^_'
'Book_'
'Ubuntu^_'
'meng'
'6.5'
'goto'
'bv_'
'severity_'
'Clo'
'ors'
'emy'
'votes_'
'Son'
'hip^_'
'RST'
'ALIGN'
'pam'
':.'
'typename_'
'female^_'
'Overflow^_'
'∅rio^_'
'fold_'
'\u\uCARET\u\u\u\u\u'
'indirect'
'Ug'
'dwa'
'isn'
'reflect'
'+)/^_'
'utils\u^_'
'smtp^_'
'ged^_'
'ubi'
'Void_'
'134^_'
'tis^_'
'supervisor'
'TARGET\u^_'
'%"_'
'nian^_'
'ajax'
'using\u^_'
'dob'
'logo_'
'fails_'
'');^_'
'MATRIX'
'mas^_'
'args'
'Pipe^_'
'PROTO'
'uge'
'deep^_'
'Unc'
'Columns_'
'~\\^_'
'x\u_'
'locs_'
'attention^_'
'Labels^_'
'filetype_'
'infl'
'proof'
'ali^_'
'invc'
'coding^_'
'business^_'
'COMMON'
'keep'
'stuff_'
'appliance_'
'webhook'
'drivers_'
'alarm_'
'csrf^_'
'RANGE^_'
'0.89'
'Td^_'
'grain'
'subtype^_'
'shift'
'0x46'
'piece^_'
'addition_'
'Vp'
'CATEGORY'
'distro_'
'Dx^_'
'tvshow'
'sine'
'Oj'
'attempts_'
'Gene^_'
')?'
'slave\u^_'
'Net_'
'flags\u^_'
'bj^_'
'pins_'
'chunks^_'
'anon^_'
'car_'
'"\\""_'
'fec'
'ard_'
'unw'
'IND^_'
'viewer_'
'Cheng^_'
'exon'
'lead^_'
'downloade'
'Xun^_'
'ular'
'HG'
'phi\u^_'
'manage\u^_'
'Ww'
'matched\u^_'
'gtf'
'byref_'
'vs\u^_'
'css'
'504_'
'compared^_'
')?'_'
'pcl'
'nfig_'
'capitalize_'
'DEB'
'MOVE'
'Dist^_'
'requirement'
'cf\u^_'
'edc'
'GGT'
'deviation^_'
'Pos'
'OFF'
'unquote'
'thon'
'pz'
'Ln^_'
'meters^_'
'+.'
'scenario\u^_'
'rof'
')''
'tls^_'
'Report'
'atr'
'Die^_'
'perce'
'Stat'
'808'
'660'
'py'
'\\|'
'genes^_'
'arch\u^_'
'BOOLEAN'
'encoder\u^_'
'fc\u^_'
'titles^_'
'303^_'
'special_'
'Host'
'produce'
'ersion'
'zx'
'etc'
'marshal'
'suites'
'genotype'
'gdk_'
'experimental^_'
'computer'
'ormat^_'
'translated^_'
'Dur'
'tip_'
'CONDITIONS^_'
'five^_'
'Visi'
'spectrum_'
'deb^_'
'2020^_'
'CFG_'
'boxes^_'
'fol'
'ssion^_'
'UC^_'
'jv'
'dro'
'align\u^_'
'infer'
'accum'
'MONITOR'
'UPDATE\u^_'
'Camp^_'
'Amp'
'receiver^_'
'det_'
'student\u^_'
'CX'
'front'
'VALUE\u^_'
'birth'
'Db_'
'636'
'strip'
'Lun'
'linear_'
'tooltip_'
'Scheduler_'
'seek'
'azi'
'esa'
'nas^_'
'0300'
'Glyph^_'
'pile'
'datas_'
'tcp\u^_'
'gette'
'666_'
'Atom_'
'ensure'
'lift'
'UNKNOWN_'
'superuser_'
'0.74'
'mint'
'counter\u^_'
'0.56'
'tsv^_'
'bound\u^_'
'mae'
'nal^_'
'149^_'
'ibe'
'agg'
'Seed^_'
'didn^_'
'ingredient'
'nce'
'igra'
'255.0_'
'Inst'
'CONNECTION^_'
'enabled\u^_'
'YG'
'fac'
'diamond'
'Pack'
')`'
'ZM'
'.)\\^_'
'])*'
'bm_'
'Ih'
'migrate^_'
'folder'
'Nj^_'
'vectorize'
'dura'
'sqr'
'IEEE^_'
'TREE'
'det^_'
'enhance'
'But^_'
'308_'
'Vec'
'Load_'
'recv^_'
'prepared'
'omega^_'
'Loc_'
'xmlrpc'
'Crit'
'maybe^_'
'Js^_'
'GV'
'yma'
'hunt'
'0x41'
'Executor_'
'Round^_'
'recommend'
'bs4_'
'C6'
'vma'
'Copy_'
'264_'
'330_'
'duplicate\u^_'
'1b'
'hing'
'Alchemy^_'
'64'
'\u\u()'
'Decode'
'cyrillic^_'
'Yield'
'certificate_'
'arrow_'
'aid^_'
'SERVER_'
'PRED'
'uffer'
'sdf'
'migration\u^_'
'coco'
'bos'
'inco'
'dialog\u^_'
'Subscriber'
'ants'
'Acc^_'
'con\u^_'
'422_'
'days\u^_'
'vhd'
'branches_'
'VG'
'captcha'
'Twisted^_'
'quota_'
'independent^_'
'editing^_'
']\\'
'clang^_'
'provision'
'dashboard'
'bigquery'
'imag_'
'0x34_'
'FIRST^_'
'tm\u^_'
'0007'
'USERNAME_'
'rendered^_'
'mega'
'SECRET_'
'KEYS_'
'trees^_'
'enc\u^_'
'$('
'scrape'
'interv'
'5714'
'broadcast'
'reconnect'
'gob'
'cont^_'
'Parameter'
'142^_'
'genome_'
'Dx'
'pprint^_'
'485'
''\u'
'Thi'
'prec_'
'0x08_'
'STORE'
'''
'more_'
'timer\u^_'
'Sensor_'
'"\\\\"_'
'speech^_'
'd0'
'PV^_'
'Der'
'outfile'
'Express^_'
'games_'
'"|^_'
'gdal'
'fold^_'
'bc\u^_'
'Terminal^_'
'rights'
'solve'
'Sheet^_'
'ARI'
'npro'
'RECT'
'v6'
'.."_'
'boost^_'
'}]^_'
'CURRENT\u^_'
'Nei'
'0x08'
'locking'
']+)/'
'cord'
'Cached^_'
'scatter'
'bisect'
'minimum\u^_'
'Tick'
'gpio_'
'mechanism^_'
'LOC'
'BODY'
'299_'
'include'
'rval_'
'tori'
'Shape'
'half\u^_'
'umb'
'YB'
'0.57'
'305_'
's3db_'
'hosts\u^_'
'a0'
'Stand'
'months_'
'ccc^_'
'Ball'
'mongo\u^_'
'bili'
'FREE'
'bay'
'harness_'
'A'
'snippet^_'
'depends_'
'ADMIN^_'
'Disposition^_'
'isr'
'ence_'
'recipes'
'browser\u^_'
'akt'
'greater'
'Perf^_'
'Liu^_'
'adjust^_'
'Components_'
'Coa'
'noi'
'Slice^_'
'emission'
'SYM'
'ARM'
'upgrade\u^_'
'99999999'
'yang\u^_'
'squeeze_'
'getstat'
'voxel'
'propert'
'meter\u^_'
'menus'
'3.5_'
'9.0_'
'soap^_'
'Duration_'
'Take^_'
'nfs'
'maps'
'keyspace'
'Lau'
'CRI'
'masks_'
'bugs^_'
'`.'
')['
'todo'
'cp\u^_'
'e-01_'
'SOCKET'
'QUEUE'
'remap'
'Emit'
'Unt'
'bottle_'
'expires_'
'rich^_'
'registry\u^_'
'oid'
'ating^_'
'#!'
'governing^_'
'0e'
'0x100'
'Wl'
'can_'
'HELP'
'|(?'
'carrier'
'apk'
'touch_'
'advertise'
'QW'
'raster'
'nli'
'MN^_'
'Fib'
'tec'
'gevent_'
'psp'
'"::^_'
'rn_'
'artifact\u^_'
'Tur'
'Tot'
'TAGS_'
'xbmcplugin_'
'vt^_'
'CGA'
'Christ'
'Nc'
'lly^_'
'LIST'
'AIR'
'Populat'
'unction'
'pip_'
'*****'
'inse'
'Cn'
')))^_'
'YT'
'Term_'
'0.68'
'factories_'
'mnt^_'
'Support'
'|[^_'
'codes'
'screen'
'floor'
'hierarchy_'
''./'
'unpack^_'
'finish\u^_'
'TOTAL^_'
'Il^_'
'TH'
'Embedded^_'
'pep^_'
'opena'
'-.'
''.//^_'
'rout'
'ANGLE'
'sqlalchemy^_'
'chas'
'Merc'
'eas'
'disable_'
'bitrate^_'
'=============^_'
'Ast'
'take\u^_'
'challenge'
'repeated^_'
'b5'
'keystone^_'
'tg^_'
'simulate'
'Tan'
'wc^_'
'ramp'
'INTE'
'propagate'
'Cu^_'
'v0_'
'.|'
'ict'
'ctu'
'***'
'Percent'
'5.4'
'Views^_'
'Markup'
'welcome^_'
'scroll\u^_'
'utilities^_'
'.\\'
'postp'
'sect^_'
'Pipeline_'
'Hw'
'DAT'
'XH'
'500'
'memb'
'Include'
''$'
'dge'
'damage^_'
'walker'
'asdf^_'
'Ui\u^_'
'drug'
'nces'
'QB'
'Uz'
'vote_'
'0.72'
'verse'
'metaclass_'
'Zb'
'Needs^_'
'1a'
'nab'
'acid'
'Barr'
'eros'
'Hint^_'
'Etc^_'
'imi'
'ale^_'
'tmpfile_'
'Deleting^_'
'Notification_'
'pu^_'
'kv^_'
'heading^_'
'∅∅n'
'overlay\u^_'
'Pia'
'RAL'
'radi'
'disks^_'
'USA^_'
'sali'
'ebr'
'zza'
'ppc^_'
'tpr'
'sphere'
'severity^_'
'crypto_'
'gus'
'mgr^_'
'human\u^_'
'Descr'
'199^_'
'singular'
'Agg'
'RECORD^_'
'Ger'
'Deb'
'Mat_'
'transition\u^_'
'pte'
'HS^_'
'API'
'Ss^_'
'participants'
'notebook^_'
'ale_'
'Guide^_'
'ESC'
'e+0'
'Vec^_'
'stamp'
'bundle\u^_'
'ield^_'
'descendant'
'fox'
'encode'
'trade'
'bom'
'newp'
'Route'
'Impact^_'
'why^_'
'Awa'
'toma'
'tif'
'Encryption^_'
'unset'
'texture_'
'slug'
'pools^_'
'Route_'
'BUTTON_'
'0.53'
'conta'
'cale_'
'ations_'
'labels'
'xra'
'Mon^_'
'cet'
'uppercase^_'
'associate'
'oa^_'
'Binary_'
'Variant_'
'177^_'
'divide^_'
'Hb'
'tq'
'fig\u^_'
'ADA'
'Short'
'recovery^_'
'orbit'
'fid'
'!!'
'tpa'
'acion'
'quat'
'ern'
'Vc'
'Bon'
'coef_'
'gori'
'dsl'
'metro'
'OH^_'
'shard\u^_'
'CONTENT\u^_'
'Av^_'
'nge_'
'520_'
'0.81'
'questions_'
'named'
'nev'
'MODEL\u^_'
'ghi'
'like'
'ionar'
'Yan'
'82'
'∅∅∅∅∅∅∅∅'_'
'ggle'
'strike'
'Vpn^_'
'avi^_'
'ingest'
'Locale^_'
'CCC'
'();'
'zstack'
'Hat^_'
'struct'
'hr_'
'customer\u^_'
'algorithms^_'
'lines'
'.*\\'
'+''
'nested_'
'Opera'
'>[\\^_'
'0.86'
'Kb'
'/?'
'Vk^_'
'Tin'
'1c'
'limited^_'
'ean^_'
'Offer^_'
'browse_'
'ROW'
'translations^_'
'delivery^_'
'ACG'
'health_'
'0.88'
'matches\u^_'
'jwt'
'4.5'
'Lj^_'
'audit^_'
'Decr'
'sudo'
'RL^_'
'Ring'
'BT^_'
'shu'
'instantiate'
'CRA'
'0.51'
'LU^_'
'und'
'direct'
'SZ^_'
'Online^_'
'thin^_'
'ures_'
'exposure'
'FFFFFF'
'getm'
'OPTYPE\u^_'
'distribute^_'
'logfile'
'weighted^_'
'pubsub'
'tsu'
'NOTE'
'DEM'
'10001'
'}\\\\^_'
'rewrite'
'Ln'
'traj_'
'generates^_'
'63'
'fpa'
'octave'
'0.48'
'elb'
'nso'
'Partition'
'253^_'
'QPI^_'
'wro'
'Luc'
'+\\.\\^_'
''\\"'
'5.7'
'DOCTYPE^_'
'ISO'
'launche'
'noo'
'Blob^_'
'stem'
'padd'
'ree_'
'9.'
'DIR'
'Mixin^_'
'tsta'
'fuse'
'035^_'
'delayed'
'texinfo\u^_'
'synth'
'assignment\u^_'
'noar'
'critic'
'3000^_'
'Echo^_'
'Colla'
'Produce'
'ator'
'ums'
'parameters\u^_'
'Addresses^_'
'ois'
'Switch'
'lucene^_'
'fa_'
'bases'
'cti'
'jsonutils_'
'5161'
'tes'
'summ'
'ding\u^_'
'folders^_'
'twist'
'Plug'
'280^_'
'retval^_'
'OPT^_'
'fcn'
'eye^_'
'memoize'
'Rr'
'Applications^_'
'Wid'
'resh'
'condition\u^_'
'WRAP'
'psycopg2_'
'inve'
'starting\u^_'
'ille'
'Nb'
'COUNT'
'stub^_'
'histogram'
'cke'
'ball_'
'=====^_'
''>='_'
'MK^_'
'eof^_'
'expected'
'evaluate\u^_'
'chainer_'
'uj^_'
'tor\u^_'
'0.71'
'centers_'
'artic'
'GOOD'
'compose^_'
'Mf'
'ODE'
'postfix'
'LANG^_'
'crud'
'Iso'
'consistency'
'Nb^_'
'aggregate\u^_'
'384^_'
'PROVIDER'
'zad'
'fmt'
'violation'
'zing^_'
'panel\u^_'
'1100_'
'LER'
'402_'
'%%{^_'
'Emp'
'Bf^_'
'(...)'
'rectangle^_'
'ost^_'
'tasks\u^_'
'CID'
'Rc^_'
'0.61'
'neti'
'Terr'
'Tipo^_'
'Yc'
'het'
'Sizer'
'fallback^_'
'Pp'
'Dot'
'edges\u^_'
'characters_'
'gcc'
'cost'
'Lx'
'Place'
'Ed^_'
'relationship'
'kit_'
'265_'
''='
'Headers^_'
'absolute_'
'Kind_'
'pect'
'retries^_'
'tera'
'Micro'
'overlay_'
'bd_'
'said^_'
'Rd'
'"]"_'
'Ty'
'EK'
'indentation'
'vla'
'horizontal'
'TEL'
'fau'
'e4'
'coefficients^_'
'NH'
'kwa'
'tools\u^_'
'prints^_'
'Velocity^_'
'holder^_'
'Brand'
'DRIVER'
'datatype^_'
'Systems^_'
'Van'
'7586'
'shapes^_'
'arc_'
'ADDR^_'
'/..'
'dmin'
'Rl^_'
'subtitles^_'
'PIC'
'bookmark^_'
'Serializer^_'
'WA^_'
'PRIM'
'7647'
'chn'
'BOOT'
'latency^_'
'Glu'
'itude'
'blend'
'rem^_'
'COMPONENT'
'Bw'
']*^_'
'repetition'
'pper'
'offer^_'
'mpe'
'signals^_'
'gpg'
'2018_'
'fasta_'
'LAB'
'Polygon_'
'Entr'
'photo\u^_'
'fasta\u^_'
'resolved'
'I2'
'5409'
'sobject'
'dbg'
'ZX'
'observe'
'cython'
'grads_'
'Typ'
'migration_'
'attachments_'
'0b00000'
'isli'
'Identity_'
'PNG^_'
'fast\u^_'
'NK'
'newl'
'grab'
'Popup^_'
'jg'
'subn'
'WIN^_'
'HE^_'
'307_'
'cale'
'IW'
'roxy'
'pushe'
'bitwise^_'
'VV^_'
'tive'
'rop^_'
'|-'
'a3_'
'xform'
'0.95_'
'retrieve'
'``\u'
'ICE'
'detector^_'
'Vector\u^_'
'less\u^_'
'n'
'java'
'shr'
'markdown_'
'rdata'
'C2'
'ERS_'
'fieldname_'
'1234567890^_'
'Quad'
'Kj'
'pulse'
'follower'
'Stage'
'"}'_'
'BOTTOM'
'∅∅∅∅∅∅∅'
'hall'
'feat\u^_'
'dop'
'DOCUMENT'
'NODE'
'0.73'
'workbook_'
'preferences^_'
'locked_'
'4294967295^_'
'LX'
'loadtxt_'
'iz^_'
'Hit^_'
'Wt'
'RS_'
'2001_'
'jinja2_'
'usu'
'Conversion^_'
'INDEX\u^_'
'Piece'
'accepta'
'Mir'
'turn'
'roi_'
'hort'
'paste'
'fromtimestamp_'
'Upload'
'S∅'
'populat'
'Chu^_'
'TED^_'
'Hea'
'reading_'
'LAN'
'259_'
'decoded_'
'expense'
''∅∅∅∅∅∅∅∅∅∅'_'
'Find'
'getpa'
'Sending^_'
'affi'
'spacing^_'
'sion'
'Reg_'
'kti'
'chart'
'Type\u^_'
'curs'
'poss'
'forma'
'information'
'skew'
'facets'
'448_'
'joe'
'FAILED_'
'440_'
'237^_'
'similar'
'png'
'SUM^_'
'AGT'
'312_'
'illegal^_'
'Colo'
'computation'
'listing_'
'hem'
'cov'
'discret'
'EY^_'
'wpa'
'UB^_'
'x3_'
'implicitly\u^_'
'GD^_'
'visitor_'
'Dist'
'VK^_'
'Ga^_'
'RUN^_'
'ect_'
'season\u^_'
'opy'
'AVAILABLE'
'cite'
'dia^_'
'setl'
'768'
'ONE^_'
'three'
'Ter'
'Eo'
'0.95'
'House'
'cdn^_'
'boto3_'
'ZC'
'Wm'
'Feat'
'sender\u^_'
'fica'
'Visual^_'
'INCLUDING^_'
'Err_'
'triggered^_'
'ric^_'
'persons^_'
'aaaaaaaaaaaaaaa^_'
'todo_'
'rds'
'SECTION'
'dock^_'
'speci'
'190^_'
'tb\u^_'
'BOUND'
'positive_'
'FRAME'
'WALL'
'Trace_'
'MAV^_'
'aspect_'
'Tree'
'remember'
'wallet_'
'installed\u^_'
'LB^_'
'IX^_'
'Clip'
'ero^_'
'1431'
'force'
'legal^_'
'Wi^_'
'REDI'
'pyn'
'Bh^_'
'configura'
'exclusive^_'
'wish^_'
'\\/'
'follow_'
'learner'
'Tos^_'
'630'
'D2_'
'502_'
'Capt'
'poster^_'
'compilation'
'*:\\^_'
'0.63'
'pipe'
'2007_'
'sbin^_'
'steps\u^_'
'MISSING'
'Hid'
'!='
'sense'
'jinja^_'
'ze\u^_'
'q2_'
'Qiu^_'
'Ff^_'
'ies'
'Device\u^_'
'EDIT'
'Loaded^_'
'161^_'
'indexing^_'
'datadir_'
'bab^_'
'DDDIFMT^_'
'symbol'
''∅∅∅∅∅∅∅^_'
'solid'
'Tog'
'tati'
'lom'
'spike'
'WORD'
'ype'
'roo'
'composite'
'Xuan^_'
'LEU^_'
'issue'
'slope_'
'haz'
'choice\u^_'
'decoder^_'
'ORD^_'
'-------'
'qos\u^_'
'emit^_'
'TK'
'DF_'
'extendable_'
'oke'
'Convolution'
'press'
'cycl'
'Lam'
'done\u^_'
'delim'
'ction_'
'Combine'
'Archive'
'hep'
'516_'
'Eq'
'URE'
'filt_'
'Fortran^_'
'will'
'Html_'
'compression_'
'Inject'
'411^_'
'reorder'
'organiza'
'postprocess'
',,,'
'socks'
'revision\u^_'
'tic_'
'CONTENT^_'
'0.0000'
'reporting^_'
'NAMESPACE'
'ghe'
'Exp'
'COMMAND\u^_'
'nsa'
'Episode^_'
'belongs^_'
'Addition'
'Switch_'
'AUDIO'
'mye'
'ironic'
'B∅'
'failures^_'
'charges'
'Calls^_'
'ader'
'pixel'
'middleware_'
'tilt'
'prompt\u^_'
'Va^_'
'#\'
'BREAK'
'}'"_'
'protocols_'
'Paragraph'
'INDEX_'
'?"'
'Quote'
'1005^_'
'tr∅'
'inbo'
'Cap^_'
'structures^_'
'INPUT_'
'mia'
'LIN'
'uild'
'fcntl_'
'fcgi^_'
'tore_'
'tiny'
'rocess'
'NJ'
'Program_'
'CLIENT'
'resolv'
'ppa'
'initializ'
'POWER^_'
'214^_'
'omic'
'Test\u^_'
'custom_'
'Dump'
'asc^_'
'Trave'
'tas'
'repositories^_'
'bins'
'pressed_'
'setm'
'L80211\u^_'
'OK'
'dent^_'
'ATI^_'
'ros^_'
'Yt'
'311_'
'Wall'
'vmodl^_'
'yle'
'iler'
'28.'
'sba'
'att_'
'(?!'
'Pred'
'Depend'
'upp'
'relations_'
'permanent'
'549_'
'CHARACTER'
'thus^_'
'UNIT'
'eid_'
'1e-3_'
'services\u^_'
'maximum\u^_'
'OST'
'nginx^_'
'cma'
'Ric'
'redshift'
'tog'
'myo'
'rep\u^_'
'articles_'
'literal\u^_'
'Img_'
'invenio^_'
'categor'
'Guid'
'rise'
'deck_'
'recurse'
'Dict'
'journal'
'discount'
'Pai'
'Information_'
'b8'
'descriptors^_'
'Hn'
'ount_'
'F1'
'euc'
'Shel'
'details\u^_'
'IPV^_'
'obt'
'idle\u^_'
'past'
'HI^_'
'lun^_'
'keymap'
'restart\u^_'
'Encode^_'
'166^_'
'axis'
'45.'
'pixbuf_'
'logl'
'bang'
'ics'
'aws'
'ulati'
'friend^_'
'campo'
'STR'
'4800'
'bid^_'
'rov'
'176^_'
'145^_'
'iters_'
'0.003'
'glib'
'eos'
'Varia'
'rsa^_'
'PAN'
'neuron'
'Browser_'
'recent\u^_'
'SG^_'
'segment'
'whatever^_'
'pcap'
'voltage^_'
'logs'
'sa\u^_'
'cool'
'boards'
'Extent'
'ror'
'PARAMETER'
'john^_'
'kpt'
'elastic'
'bam'
'therefore^_'
'LEVEL\u^_'
'0x02'
'reli'
'533^_'
'147^_'
'motor^_'
'ACH'
'reload\u^_'
'gle^_'
'subsystem'
'xls'
'plan\u^_'
'expanded^_'
'Replica'
'Mgt^_'
'wrapped\u^_'
'spine'
'kni'
'+(?'
'VE\u^_'
'KU'
'REAL^_'
'floats^_'
'LP^_'
'stacked'
'IDE'
'*\u'
'none'
'else'
'watch_'
'Modifier^_'
'pod_'
'cati'
'itm'
'PCA'
'slave_'
'Party^_'
'snow'
'highest^_'
'Xh'
'SEL'
'$$'
'volume'
'cook'
'16'
'tring'
'Absolute^_'
'repos'
'Move'
'average'
'0xC0000'
'shl'
'ves'
'lose'
'where\u^_'
'caps'
'Au^_'
'cked'
'a8'
'School^_'
'drag^_'
'Words_'
'here'
'kov'
'surname'
'Toolbar'
'c3_'
'WINDOWS'
'Ctx'
'transmission'
'achieve'
'403^_'
'cts^_'
'mic^_'
'labeled'
'emit\u^_'
'dicts^_'
'chan^_'
'GAME'
'fsta'
'crop_'
'bility_'
'vim'
'autom'
'occurr'
'difficulty'
'TRIGGER'
'o1_'
'Rob'
'YES^_'
'Http404_'
'registers_'
'Chen^_'
'2312^_'
'CHI'
'HANDLE^_'
'checkout'
'Notif'
'kur'
'``.'
'Ew^_'
'315_'
'consumed'
'guesse'
'collapse^_'
'Tam'
'frozen'
'dbus\u^_'
'spend'
'STATI'
'pta'
'mak'
'..'_'
'reminder'
'ARB'
'412_'
'minimal^_'
'.*"_'
'indent\u^_'
'h5'
'interpolate_'
'dei'
'Minimum_'
'nke'
'fx^_'
'lex_'
'waypoint'
'mask'
'4d'
'signed\u^_'
'Nl^_'
'correct'
'10000000'
'aga'
'pheno'
'propagate^_'
'QUERY\u^_'
'clar'
'hive^_'
'cup'
'Abo'
'563'
'ngine'
'hape_'
'Miss'
'",\\^_'
'nme'
'cast\u^_'
'Hd'
'abbr'
'20.0_'
'0.76'
'relocate^_'
'xma'
'yst'
'""""""_'
'prj'
'flux'
'Subse'
'ypt'
'confirmation^_'
'bat^_'
'FAL'
'.<^_'
'visible\u^_'
'caa'
'DE_'
'nro'
'ipsec'
'HV'
'875_'
'appliance'
'srv_'
'420_'
'ari^_'
'Getting^_'
'Attack'
''---'
'personali'
'isu'
'logger\u^_'
'a4'
'340_'
'pseudo'
'artifact^_'
'pwd^_'
'nrows_'
'brown^_'
'quantit'
'legend'
'received\u^_'
'DISCO'
'Selected_'
'CHECK^_'
'hints_'
'sku'
'MEMORY^_'
'venv'
'81.0_'
'Nr^_'
'speech'
'STAT'
'009^_'
'couch'
'imap^_'
'connected\u^_'
'dwe'
'samba^_'
'corr'
'mani'
'QC^_'
'BP^_'
'rrow^_'
'nto^_'
'THIS^_'
'0.000000_'
'cmds'
'sentence\u^_'
'\\'``'
'580'
'pyv'
'GREEN_'
'sickbeard_'
'pdu'
'waf'
'latest_'
'FER'
'32.'
'oint_'
'sex^_'
'forces'
'GLU^_'
'Parent'
'saptone^_'
'0.64'
'":"'
'nlo'
'nit^_'
'likely^_'
'DDD'
'CHARS'
'realm'
'tot\u^_'
'dsp'
'sis^_'
'scap'
'CHANGE^_'
'gie'
'ENCODING'
'white_'
'inal'
'tier^_'
'dut'
'352_'
'ZS'
'Flat^_'
'webla'
'keyboard_'
'subtitle^_'
'cov\u^_'
'dts'
'DICT'
'Legend^_'
'velocit'
'SCAN'
'bun'
'rvice'
'mutation'
'=".'
'v1'
'sip'
'SOU'
'IDENTIFIER'
'calib'
'SEARCH\u^_'
'Graph'
'DOUBLE'
'serve^_'
'FAC'
'-->'
'ahead'
'AZ'
'1280_'
'cow'
'moni'
'meter_'
'Liste'
'ibs'
'mar^_'
'captured'
'rde'
'follow\u^_'
'authenticate^_'
'NUCLEO^_'
'Appl'
'jet'
'enda'
'Islands^_'
'oi^_'
'dfmp^_'
'746'
'position'
'older^_'
'sanitize'
'moment^_'
'quarter'
'50000^_'
'webd'
'rho\u^_'
'XX'
'sss'
'half'
'ethernet^_'
'ologi'
'jobs'
'LINE_'
'frac_'
'DOMAIN^_'
'fortran'
'Permissions^_'
'declared^_'
'656'
'Pair_'
'!"'
'combo\u^_'
'WHITE_'
'srt'
'iat'
'nuc'
'TAB'
'FORE'
'smile'
'epoch\u^_'
'exa'
'eer'
'Implementation\u^_'
'180.0_'
'ENABLED_'
'RMS'
'PARENT'
'genre_'
'QUOTE'
'viol'
'ber_'
'tpl_'
'ranc'
'asse'
'anime'
'MMM'
'TASK\u^_'
'ADDR_'
'0x84'
'rator'
'follow'
'vtype'
'Firewall^_'
'xer'
'Swe'
'llo'
'lau'
'tics^_'
''∅∅∅∅∅∅∅∅∅'
'outstr'
'Grad'
'CCCC'
'Just^_'
'313_'
'White'
'ALIAS'
'wear^_'
'notifier_'
'adj_'
'5.8'
'0.91'
'Expire'
'fw\u^_'
'lvm'
'makefile'
'nums'
'howto^_'
'Tracking^_'
'sv_'
'Fb'
''${^_'
'preview_'
'Plat'
'OX'
'dimension'
'dpi'
'queues_'
'gar^_'
'compress^_'
'law'
'32'
'unload'
'arn_'
'nsu'
'Wrap^_'
'ario'
'ional'
'Drag^_'
'2500_'
'overlay^_'
'routers_'
'msp'
'chart\u^_'
'ools_'
'STACK^_'
'BAT'
'reqs_'
'+)/$'_'
'deu'
'white'
'overs'
'micro^_'
'LOOK'
'29.'
'literal_'
'zones^_'
'FACE'
'debian^_'
'exit\u\u_'
'247^_'
'vk^_'
'``(^_'
'480^_'
'getter'
'G1'
'0000003'
'hls^_'
'COORD'
'metad'
'EXTRACT'
'):'
'entra'
'Geno'
'bob'
''``^_'
'inter^_'
'Strings^_'
'ved^_'
'lamp'
'RES^_'
'ycle'
'262_'
'Sel'
'?(?'
'percent\u^_'
'mov^_'
'GLOBAL_'
'terminate^_'
'tsp'
'quis'
'ervice'
'Mount'
'Messages_'
'EPS'
'vpn'
'Use_'
'mang'
'odel_'
'straight'
'rotation\u^_'
'Inet^_'
'STOP^_'
'translation\u^_'
'bug_'
'pl\u^_'
'export'
'0x0F_'
'pcm'
'ater'
'rows'
':(?'
'"[%^_'
'satellite'
'n∅o^_'
'Mcs^_'
'nzb'
'asy'
'325_'
'0x00000'
'reboot'
'multiply_'
'Hosts^_'
')\u\u\uCARET\u\u\u'
'olor_'
'enn'
'Hg^_'
'purposes^_'
'ograph'
'utili'
'nh∅'
'minimize'
'353_'
'granted^_'
'turn\u^_'
'kh^_'
'horizon^_'
'Lie'
'lives'
'Generat'
'Checke'
'294_'
'targ'
'cmdline'
'uran'
'{\\'
'otr'
'REGEX'
'Deprecated^_'
'wkt'
'unh'
'0x30'
'shuffle'
'confidence^_'
'nly'
'TG^_'
'OUTPUT_'
'thickness_'
'protocols^_'
'graphs^_'
'inline\u^_'
'omit'
'Han'
'sot'
'adult'
'vmware^_'
'subclass_'
'libt'
'subnet'
'*%'
'273_'
'0.83'
'sonat'
'COS'
'Rotat'
'printer^_'
'TIF'
''{}'^_'
'Ro^_'
'backward^_'
'271_'
'translat'
'reviewer'
'Social^_'
'til^_'
'intp'
';}'
'gne'
'Fd'
'args\u'
'nice^_'
'ei^_'
'Either^_'
'wrap'
'evaluat'
'anim'
'exif'
'BAS'
'>:'
'DIFF'
'592'
'mine^_'
'wer^_'
'484'
'journal_'
'digit_'
'">('
'",'
'variance_'
'rf\u^_'
'xlink^_'
'429_'
'Zm'
'Jm'
'Detal'
'CREATE\u^_'
'bx'
'bn_'
'resultado'
'gps'
'neurons'
'TAL'
'Yi'
'aki'
'}.{^_'
'cmp\u^_'
'pybindgen_'
'bu^_'
'kf^_'
'Counts^_'
'calibration'
'RSS^_'
'beam'
'apiclient_'
'hic'
'Arr_'
'BUFFER\u^_'
'1e-6_'
'F0'
'modi'
'caps_'
'changing^_'
'para_'
'balanc'
'Pag'
'34.'
'ene^_'
'Illegal^_'
'sra'
'410_'
'surf_'
'biom'
'pyspark'
'dab'
'edd'
'imgs_'
'Existing^_'
'Ik^_'
'bed_'
'Br'
'l3\u^_'
'epub\u^_'
'Slide'
'graphics_'
'factor'
'userd'
'AR_'
'axes\u^_'
'HH'
'Encod'
'?!'
'pci\u^_'
'LG'
'uu^_'
'gray'
'people_'
'80.0_'
'comme'
'aro'
'Hto'
'Sichuan^_'
'purple^_'
'toggled'
'his'
'Plan^_'
'\\.\\'
'eap'
'Arp^_'
'CAN^_'
'setb'
'numerical^_'
'registro'
'Strategy^_'
'Key\u^_'
'ilde^_'
'(!^_'
'Legacy^_'
'acct'
'Bucket_'
'perf\u^_'
'scoring'
'docstring_'
'Union^_'
'Counters^_'
'tul'
'nove'
'ROC^_'
'Membership^_'
'0020'
'encountered^_'
'"}}'
'gm^_'
'Recon'
'oph'
'DELAY'
'=?'
'structur'
'holder_'
'534^_'
'effect'
'Tilde^_'
'0.59'
'usr'
'lim_'
'recv'
'Signature_'
'sequential'
'ous_'
'CMS^_'
'superclass'
'odd'
'235^_'
'tax_'
'stale'
'halo'
'86.0_'
'alen'
'tear'
'o2_'
'chl'
'DIS'
'Pn^_'
'updater_'
'locate^_'
'dfa'
'cae'
'father'
'fork'
'Vir'
'496'
'obsolete'
'bench^_'
'citation^_'
'PACKAGE\u^_'
'weak'
'Turk'
'2006_'
'migrat'
'7518'
'37.'
'VEN'
'Sw'
'moon'
'typedef'
'ptg^_'
'NF^_'
'Frontend^_'
'nvi'
'1800_'
'272_'
'city\u^_'
'c0'
'Th^_'
'8e'
'decay_'
'Bg'
'beam\u^_'
'garbage^_'
'kwd'
'coefficient^_'
'oauth2'
'TIMES'
'SYMBOL'
'><'
'uploads^_'
'RESOURCE'
'unpa'
'F4'
'mart'
'elin'
'tch'
'Gauss'
'"))'
'WP^_'
'COUNTRY'
''<='_'
'sam^_'
'validity'
'unid'
'Wer'
'META_'
'vim_'
'290_'
'reboot^_'
'Algo'
'G2'
'threshold\u^_'
'goal\u^_'
'vms_'
'uter'
'408_'
'EXCEPTION'
'pref_'
'Wed'
'kata'
'Summary_'
'Activities^_'
'490'
'HAS\u^_'
'Full'
'629'
'Registra'
'effective^_'
'Codec^_'
'machine'
'fication'
'Lw'
'8859'
'libvirt^_'
''\\['
'vowel'
'GK'
'DESC'
'foi'
'bbox^_'
'672'
'>/<^_'
'Alternative^_'
'CELL'
'Bal'
'dse'
'ulong'
'wood^_'
'drive'
'Stem'
'Ing'
'Split_'
'FAIL'
'NULL'
'"!'
'spd'
'SAL'
'SIP^_'
'fran'
'venue'
'Trie'
'SETTING'
'Band'
'retr'
'given_'
'Cat^_'
'Qo'
'EFF'
'AFTER'
'persistence'
'Certificate'
'"}^_'
'itle_'
'Inputs^_'
'HASH^_'
'testing\u^_'
'quo'
'Prop_'
'longest'
'amt'
'pymo'
'Hot'
'snd'
'ward'
'axe'
'Tang'
'KEEP'
'rebuild'
'Information\u^_'
'Pb^_'
'Jet'
'SWI'
'npar'
'marks^_'
'bool'
'persistent^_'
'TN^_'
'nds^_'
'collide'
'trou'
'deploy_'
'Techn'
'Tmp'
'nin^_'
'expire'
'Pair'
'Interrupt^_'
'bda'
'ource^_'
'gq'
'charm'
'Tel'
'reagent^_'
'rsc'
']''
'Comments^_'
'waiting'
'cpa'
'distinct^_'
'Arc^_'
'enz'
'band\u^_'
'ROM'
'Extensions^_'
'======^_'
'248^_'
'yr^_'
'pair'
'(``'
'263_'
'cript_'
'raise'
'installa'
'many'
'mam'
'318_'
'addon\u^_'
'Ha^_'
'indexed'
'Monitor_'
'SSL_'
'uring^_'
'7f'
'vars\u^_'
'setc'
'avr'
']`'
'deca'
'298^_'
'258_'
'nia^_'
'completion_'
'Fn_'
'20160'
'race'
'euler'
'pci^_'
'fe_'
'hmm'
'aha'
'Coordinate'
'Wg'
'MASTER'
'olum'
'pron'
'MESSAGES'
'"""<?^_'
'tail'
'preserve'
'246^_'
'ljust_'
'8235'
'Arg'
'415_'
'lis^_'
'administrator^_'
'built\u^_'
'S1'
'MUT'
'Am^_'
'Full_'
'Combine^_'
'worksheet'
'SHIFT'
'Next_'
'satisf'
'RAW'
'596'
'Pk'
'Bt'
'EMPTY\u^_'
'Vw'
'nore'
'caus'
'Lp'
'cara'
'SPE'
'Compress'
'sfi'
'cope'
'ues'
'pts'
'terr'
'regr'
[...]
